/* Generated by Edge Impulse
 *
 * Permission is hereby granted, free of charge, to any person obtaining a copy
 * of this software and associated documentation files (the "Software"), to deal
 * in the Software without restriction, including without limitation the rights
 * to use, copy, modify, merge, publish, distribute, sublicense, and/or sell
 * copies of the Software, and to permit persons to whom the Software is
 * furnished to do so, subject to the following conditions:
 *
 * The above copyright notice and this permission notice shall be included in
 * all copies or substantial portions of the Software.
 *
 * THE SOFTWARE IS PROVIDED "AS IS", WITHOUT WARRANTY OF ANY KIND, EXPRESS OR
 * IMPLIED, INCLUDING BUT NOT LIMITED TO THE WARRANTIES OF MERCHANTABILITY,
 * FITNESS FOR A PARTICULAR PURPOSE AND NONINFRINGEMENT. IN NO EVENT SHALL THE
 * AUTHORS OR COPYRIGHT HOLDERS BE LIABLE FOR ANY CLAIM, DAMAGES OR OTHER
 * LIABILITY, WHETHER IN AN ACTION OF CONTRACT, TORT OR OTHERWISE, ARISING FROM,
 * OUT OF OR IN CONNECTION WITH THE SOFTWARE OR THE USE OR OTHER DEALINGS IN THE
 * SOFTWARE.
 */

#ifndef _EI_CLASSIFIER_TFLITE_LEARN_5_H_
#define _EI_CLASSIFIER_TFLITE_LEARN_5_H_

#define EI_CLASSIFIER_TFLITE_LEARN_5_ARENA_SIZE     3616
const size_t tflite_learn_5_arena_size = 3616;

#ifdef EI_CLASSIFIER_TFLITE_ARENA_SIZE
#if EI_CLASSIFIER_TFLITE_ARENA_SIZE < EI_CLASSIFIER_TFLITE_LEARN_5_ARENA_SIZE
#undef EI_CLASSIFIER_TFLITE_ARENA_SIZE
#define EI_CLASSIFIER_TFLITE_ARENA_SIZE EI_CLASSIFIER_TFLITE_LEARN_5_ARENA_SIZE
#endif // #if EI_CLASSIFIER_TFLITE_ARENA_SIZE < EI_CLASSIFIER_TFLITE_LEARN_5_ARENA_SIZE
#else
#define EI_CLASSIFIER_TFLITE_ARENA_SIZE EI_CLASSIFIER_TFLITE_LEARN_5_ARENA_SIZE
#endif // #ifdef EI_CLASSIFIER_TFLITE_ARENA_SIZE

#if defined __GNUC__
#define ALIGN(X) __attribute__((aligned(X)))
#elif defined _MSC_VER
#define ALIGN(X) __declspec(align(X))
#elif defined __TASKING__
#define ALIGN(X) __align(X)
#else
#define ALIGN(X)
#endif

ALIGN(16) const unsigned char tflite_learn_5[] = {
  0x1c, 0x00, 0x00, 0x00, 0x54, 0x46, 0x4c, 0x33, 0x14, 0x00, 0x20, 0x00,
  0x1c, 0x00, 0x18, 0x00, 0x14, 0x00, 0x10, 0x00, 0x0c, 0x00, 0x00, 0x00,
  0x08, 0x00, 0x04, 0x00, 0x14, 0x00, 0x00, 0x00, 0x1c, 0x00, 0x00, 0x00,
  0x8c, 0x00, 0x00, 0x00, 0xe4, 0x00, 0x00, 0x00, 0x70, 0x0f, 0x00, 0x00,
  0x80, 0x0f, 0x00, 0x00, 0xcc, 0x19, 0x00, 0x00, 0x03, 0x00, 0x00, 0x00,
  0x01, 0x00, 0x00, 0x00, 0x10, 0x00, 0x00, 0x00, 0x00, 0x00, 0x0a, 0x00,
  0x10, 0x00, 0x0c, 0x00, 0x08, 0x00, 0x04, 0x00, 0x0a, 0x00, 0x00, 0x00,
  0x0c, 0x00, 0x00, 0x00, 0x1c, 0x00, 0x00, 0x00, 0x3c, 0x00, 0x00, 0x00,
  0x0f, 0x00, 0x00, 0x00, 0x73, 0x65, 0x72, 0x76, 0x69, 0x6e, 0x67, 0x5f,
  0x64, 0x65, 0x66, 0x61, 0x75, 0x6c, 0x74, 0x00, 0x01, 0x00, 0x00, 0x00,
  0x04, 0x00, 0x00, 0x00, 0x9c, 0xff, 0xff, 0xff, 0x10, 0x00, 0x00, 0x00,
  0x04, 0x00, 0x00, 0x00, 0x08, 0x00, 0x00, 0x00, 0x6f, 0x75, 0x74, 0x70,
  0x75, 0x74, 0x5f, 0x30, 0x00, 0x00, 0x00, 0x00, 0x01, 0x00, 0x00, 0x00,
  0x04, 0x00, 0x00, 0x00, 0x6e, 0xf0, 0xff, 0xff, 0x04, 0x00, 0x00, 0x00,
  0x01, 0x00, 0x00, 0x00, 0x78, 0x00, 0x00, 0x00, 0x02, 0x00, 0x00, 0x00,
  0x34, 0x00, 0x00, 0x00, 0x04, 0x00, 0x00, 0x00, 0xdc, 0xff, 0xff, 0xff,
  0x13, 0x00, 0x00, 0x00, 0x04, 0x00, 0x00, 0x00, 0x13, 0x00, 0x00, 0x00,
  0x43, 0x4f, 0x4e, 0x56, 0x45, 0x52, 0x53, 0x49, 0x4f, 0x4e, 0x5f, 0x4d,
  0x45, 0x54, 0x41, 0x44, 0x41, 0x54, 0x41, 0x00, 0x08, 0x00, 0x0c, 0x00,
  0x08, 0x00, 0x04, 0x00, 0x08, 0x00, 0x00, 0x00, 0x12, 0x00, 0x00, 0x00,
  0x04, 0x00, 0x00, 0x00, 0x13, 0x00, 0x00, 0x00, 0x6d, 0x69, 0x6e, 0x5f,
  0x72, 0x75, 0x6e, 0x74, 0x69, 0x6d, 0x65, 0x5f, 0x76, 0x65, 0x72, 0x73,
  0x69, 0x6f, 0x6e, 0x00, 0x14, 0x00, 0x00, 0x00, 0x88, 0x0e, 0x00, 0x00,
  0x80, 0x0e, 0x00, 0x00, 0x64, 0x0e, 0x00, 0x00, 0x34, 0x0e, 0x00, 0x00,
  0xfc, 0x0d, 0x00, 0x00, 0x24, 0x0d, 0x00, 0x00, 0xc4, 0x0c, 0x00, 0x00,
  0x5c, 0x0a, 0x00, 0x00, 0xd4, 0x09, 0x00, 0x00, 0xbc, 0x02, 0x00, 0x00,
  0xbc, 0x01, 0x00, 0x00, 0xbc, 0x00, 0x00, 0x00, 0xb4, 0x00, 0x00, 0x00,
  0xac, 0x00, 0x00, 0x00, 0xa4, 0x00, 0x00, 0x00, 0x9c, 0x00, 0x00, 0x00,
  0x94, 0x00, 0x00, 0x00, 0x8c, 0x00, 0x00, 0x00, 0x6c, 0x00, 0x00, 0x00,
  0x04, 0x00, 0x00, 0x00, 0x2e, 0xf1, 0xff, 0xff, 0x04, 0x00, 0x00, 0x00,
  0x58, 0x00, 0x00, 0x00, 0x0c, 0x00, 0x00, 0x00, 0x08, 0x00, 0x0e, 0x00,
  0x08, 0x00, 0x04, 0x00, 0x08, 0x00, 0x00, 0x00, 0x10, 0x00, 0x00, 0x00,
  0x28, 0x00, 0x00, 0x00, 0x00, 0x00, 0x06, 0x00, 0x08, 0x00, 0x04, 0x00,
  0x06, 0x00, 0x00, 0x00, 0x04, 0x00, 0x00, 0x00, 0x01, 0x00, 0x00, 0x00,
  0xeb, 0x03, 0x00, 0x00, 0x00, 0x00, 0x0a, 0x00, 0x10, 0x00, 0x0c, 0x00,
  0x08, 0x00, 0x04, 0x00, 0x0a, 0x00, 0x00, 0x00, 0x03, 0x00, 0x00, 0x00,
  0x02, 0x00, 0x00, 0x00, 0x04, 0x00, 0x00, 0x00, 0x06, 0x00, 0x00, 0x00,
  0x32, 0x2e, 0x31, 0x31, 0x2e, 0x31, 0x00, 0x00, 0x92, 0xf1, 0xff, 0xff,
  0x04, 0x00, 0x00, 0x00, 0x10, 0x00, 0x00, 0x00, 0x31, 0x2e, 0x31, 0x34,
  0x2e, 0x30, 0x00, 0x00, 0x00, 0x00, 0x00, 0x00, 0x00, 0x00, 0x00, 0x00,
  0x7c, 0xf1, 0xff, 0xff, 0x80, 0xf1, 0xff, 0xff, 0x84, 0xf1, 0xff, 0xff,
  0x88, 0xf1, 0xff, 0xff, 0x8c, 0xf1, 0xff, 0xff, 0x90, 0xf1, 0xff, 0xff,
  0xc6, 0xf1, 0xff, 0xff, 0x04, 0x00, 0x00, 0x00, 0xf0, 0x00, 0x00, 0x00,
  0xf8, 0x57, 0x19, 0x9e, 0x89, 0x08, 0x1c, 0x61, 0x4d, 0xbd, 0x4c, 0xf8,
  0xa2, 0x43, 0xf5, 0xa0, 0x54, 0xae, 0x57, 0x3c, 0xd7, 0xf4, 0x04, 0x13,
  0x37, 0xc2, 0xdb, 0x0a, 0x44, 0x54, 0x0e, 0x4e, 0x3e, 0xed, 0xf3, 0xee,
  0xa1, 0xf9, 0x98, 0x8d, 0x65, 0x81, 0x37, 0x1e, 0xe6, 0xd2, 0x67, 0xdb,
  0xcc, 0xdb, 0xbc, 0x37, 0x1b, 0xfa, 0xa0, 0x1b, 0x65, 0x10, 0xcc, 0x27,
  0xfa, 0x8f, 0xec, 0x20, 0x02, 0xf8, 0xda, 0x9b, 0xe4, 0x4a, 0xcd, 0xea,
  0xa0, 0x90, 0xb6, 0xd8, 0xf8, 0xc9, 0x21, 0x4b, 0xf0, 0x20, 0xb7, 0xfc,
  0xf8, 0xdf, 0x22, 0xb7, 0xeb, 0x29, 0x58, 0xa3, 0x33, 0xed, 0x64, 0x52,
  0x17, 0xa5, 0xe5, 0xdf, 0x50, 0xd5, 0x6c, 0x90, 0xe7, 0xc1, 0x59, 0x04,
  0x98, 0x67, 0x37, 0xf3, 0x6d, 0x9e, 0xbd, 0x08, 0x33, 0xbe, 0xff, 0x9e,
  0x1b, 0xa6, 0x12, 0xa9, 0x1f, 0x9f, 0xcc, 0x5b, 0x93, 0x45, 0x91, 0xe5,
  0x86, 0x5a, 0x63, 0x14, 0x9c, 0x00, 0x24, 0x6f, 0x63, 0x9a, 0x16, 0xfc,
  0xb7, 0x5d, 0xad, 0x9c, 0x39, 0x56, 0x5d, 0xd5, 0xe3, 0x37, 0xf5, 0x96,
  0x56, 0xec, 0xf1, 0xa4, 0xeb, 0x3b, 0x2a, 0x2d, 0x53, 0x09, 0x2a, 0x28,
  0xa2, 0xc8, 0x70, 0x16, 0xb7, 0x34, 0x2c, 0x50, 0x12, 0xab, 0xca, 0x15,
  0x14, 0xa6, 0xd4, 0xd7, 0xd7, 0x91, 0xd8, 0xf7, 0x20, 0x25, 0xda, 0x6a,
  0x3e, 0x3b, 0xf1, 0x42, 0x9f, 0x44, 0xc1, 0xb2, 0x30, 0xcc, 0xf7, 0x20,
  0x5c, 0x90, 0x4b, 0x62, 0x01, 0x9d, 0xa4, 0x96, 0xbe, 0x6d, 0xed, 0x1a,
  0xc2, 0xbc, 0x36, 0x8e, 0x9a, 0x0c, 0x17, 0x1c, 0xd3, 0xe5, 0x2a, 0xdc,
  0x6a, 0xe2, 0x2c, 0x74, 0x3c, 0x09, 0xfc, 0xd3, 0xfe, 0xd4, 0x4a, 0x51,
  0xc2, 0xf2, 0xff, 0xff, 0x04, 0x00, 0x00, 0x00, 0xf0, 0x00, 0x00, 0x00,
  0xff, 0xff, 0xff, 0xff, 0xff, 0xff, 0xff, 0xff, 0x00, 0x00, 0x00, 0x00,
  0x00, 0x00, 0x00, 0x00, 0xff, 0xff, 0xff, 0xff, 0xff, 0xff, 0xff, 0xff,
  0x00, 0x00, 0x00, 0x00, 0xff, 0xff, 0xff, 0xff, 0x00, 0x00, 0x00, 0x00,
  0x00, 0x00, 0x00, 0x00, 0xff, 0xff, 0xff, 0xff, 0xff, 0xff, 0xff, 0xff,
  0x00, 0x00, 0x00, 0x00, 0x00, 0x00, 0x00, 0x00, 0x00, 0x00, 0x00, 0x00,
  0x00, 0x00, 0x00, 0x00, 0x00, 0x00, 0x00, 0x00, 0xff, 0xff, 0xff, 0xff,
  0x00, 0x00, 0x00, 0x00, 0x00, 0x00, 0x00, 0x00, 0x00, 0x00, 0x00, 0x00,
  0x00, 0x00, 0x00, 0x00, 0xff, 0xff, 0xff, 0xff, 0xff, 0xff, 0xff, 0xff,
  0x00, 0x00, 0x00, 0x00, 0x00, 0x00, 0x00, 0x00, 0x01, 0x00, 0x00, 0x00,
  0x01, 0x00, 0x00, 0x00, 0x00, 0x00, 0x00, 0x00, 0x00, 0x00, 0x00, 0x00,
  0x00, 0x00, 0x00, 0x00, 0xff, 0xff, 0xff, 0xff, 0x00, 0x00, 0x00, 0x00,
  0x00, 0x00, 0x00, 0x00, 0x00, 0x00, 0x00, 0x00, 0x00, 0x00, 0x00, 0x00,
  0x00, 0x00, 0x00, 0x00, 0x00, 0x00, 0x00, 0x00, 0x00, 0x00, 0x00, 0x00,
  0x00, 0x00, 0x00, 0x00, 0x00, 0x00, 0x00, 0x00, 0xff, 0xff, 0xff, 0xff,
  0x00, 0x00, 0x00, 0x00, 0xff, 0xff, 0xff, 0xff, 0x00, 0x00, 0x00, 0x00,
  0x00, 0x00, 0x00, 0x00, 0x00, 0x00, 0x00, 0x00, 0x00, 0x00, 0x00, 0x00,
  0x00, 0x00, 0x00, 0x00, 0x00, 0x00, 0x00, 0x00, 0x00, 0x00, 0x00, 0x00,
  0xff, 0xff, 0xff, 0xff, 0x00, 0x00, 0x00, 0x00, 0x00, 0x00, 0x00, 0x00,
  0x00, 0x00, 0x00, 0x00, 0xff, 0xff, 0xff, 0xff, 0x00, 0x00, 0x00, 0x00,
  0x00, 0x00, 0x00, 0x00, 0x00, 0x00, 0x00, 0x00, 0xff, 0xff, 0xff, 0xff,
  0xbe, 0xf3, 0xff, 0xff, 0x04, 0x00, 0x00, 0x00, 0x08, 0x07, 0x00, 0x00,
  0x28, 0x0d, 0x6f, 0xce, 0x3e, 0xaf, 0xbb, 0xa2, 0x95, 0x5b, 0x47, 0xb4,
  0xe1, 0xbc, 0xe8, 0xa3, 0xfc, 0xb4, 0x01, 0xd5, 0x49, 0x18, 0xdb, 0x12,
  0x5e, 0xa2, 0xe6, 0xd8, 0x3c, 0xc1, 0xd7, 0x6d, 0x9b, 0xa9, 0x9f, 0xff,
  0x18, 0xc1, 0x6a, 0xbb, 0xcc, 0x6d, 0x4f, 0x28, 0x96, 0xa3, 0x4d, 0xf0,
  0xbf, 0xf1, 0x96, 0x29, 0xf4, 0x49, 0x59, 0x34, 0x53, 0xc4, 0x34, 0xf8,
  0xcf, 0x47, 0xd3, 0x12, 0x44, 0x5f, 0xd5, 0xcc, 0x6c, 0xbf, 0x6e, 0xa9,
  0xd6, 0x05, 0x02, 0x00, 0x66, 0x37, 0x11, 0x1f, 0x01, 0x36, 0x61, 0x42,
  0x5a, 0xd0, 0xf0, 0x40, 0x0d, 0xdb, 0x0e, 0xd8, 0x36, 0xb3, 0x0f, 0x92,
  0xf6, 0x1d, 0xc9, 0x50, 0xf7, 0x0e, 0xc4, 0xca, 0xc7, 0x93, 0x70, 0xb9,
  0x73, 0x45, 0x33, 0xfe, 0x04, 0xf4, 0xee, 0x5d, 0x5e, 0xe7, 0x72, 0x01,
  0xea, 0x67, 0xdd, 0xf5, 0xeb, 0xbc, 0x9e, 0x43, 0x6d, 0x38, 0x0e, 0x31,
  0xdf, 0x20, 0x67, 0x3a, 0x66, 0xcb, 0x56, 0xe6, 0x9f, 0x27, 0x6c, 0x26,
  0x12, 0xb1, 0xfd, 0xc6, 0x3d, 0x3c, 0x6c, 0xba, 0x5e, 0xd6, 0xf9, 0xec,
  0xed, 0xb4, 0xcc, 0xcf, 0xbf, 0xaf, 0xb7, 0xb7, 0x94, 0x95, 0xa3, 0x5a,
  0x5f, 0x44, 0xbc, 0x63, 0x0b, 0xb2, 0x4b, 0x09, 0xa7, 0x99, 0x66, 0xd5,
  0x31, 0xf7, 0xc0, 0x48, 0xb0, 0xc3, 0x67, 0x4c, 0x20, 0x11, 0x3f, 0x46,
  0xab, 0xea, 0xf9, 0x37, 0xac, 0x06, 0xb1, 0x90, 0xc2, 0xc0, 0xde, 0x56,
  0xd5, 0xf0, 0xc9, 0x81, 0x4a, 0xc0, 0xc9, 0xab, 0xb9, 0x14, 0xdc, 0x5b,
  0x5f, 0x4a, 0x2d, 0x41, 0x91, 0xb0, 0x63, 0xac, 0xa3, 0x0b, 0x56, 0xf6,
  0x47, 0x13, 0xf0, 0x4d, 0xcf, 0xc6, 0x3b, 0x20, 0xd8, 0x4e, 0xd3, 0xbe,
  0xd1, 0xdb, 0xe3, 0x3c, 0xf1, 0xac, 0x47, 0xfa, 0xe9, 0x32, 0x2e, 0x19,
  0xc5, 0x03, 0x71, 0xa3, 0x66, 0xf2, 0x1e, 0x30, 0xb5, 0x60, 0xaa, 0xc0,
  0xf4, 0xcf, 0x47, 0x10, 0xf9, 0x50, 0x62, 0xce, 0xef, 0x48, 0x63, 0x5a,
  0xf9, 0xd0, 0xb2, 0xa0, 0xa6, 0x5b, 0x5a, 0x46, 0xe5, 0xdd, 0x68, 0x9b,
  0x6e, 0x53, 0x06, 0x4e, 0xb2, 0xb0, 0xdf, 0x0f, 0x42, 0x55, 0x9e, 0xc3,
  0xb3, 0x38, 0xf8, 0xd2, 0xd3, 0xc3, 0xbe, 0x5b, 0xe0, 0x04, 0x95, 0x99,
  0xb2, 0x66, 0xbb, 0x52, 0xd0, 0xfa, 0x58, 0xf2, 0x72, 0xa3, 0x35, 0x0c,
  0x35, 0x67, 0xce, 0xd2, 0xaf, 0xb3, 0x0f, 0x14, 0x19, 0xf0, 0xad, 0x0c,
  0xda, 0x0c, 0xe2, 0xf0, 0xb0, 0xae, 0x4b, 0x64, 0x39, 0xf9, 0xd1, 0x36,
  0xba, 0x98, 0xb5, 0x6e, 0x36, 0x78, 0x36, 0x41, 0x2a, 0x0a, 0x19, 0x65,
  0x5a, 0xb3, 0x0b, 0x02, 0xba, 0xef, 0xf0, 0xe1, 0x41, 0x4b, 0xc0, 0xcb,
  0x03, 0x97, 0xf0, 0xf5, 0xb7, 0xe9, 0xf1, 0xa3, 0x04, 0xdd, 0x66, 0x0d,
  0x12, 0x0e, 0x38, 0xf1, 0xdc, 0xd2, 0x92, 0x67, 0x46, 0xcc, 0x11, 0x2e,
  0xca, 0xa6, 0x94, 0xb3, 0xa5, 0x56, 0x1d, 0xa2, 0x9f, 0x1b, 0x1b, 0x0f,
  0x70, 0xd2, 0x5f, 0x9b, 0x4d, 0xf5, 0x19, 0x3c, 0xfd, 0x5f, 0x15, 0x68,
  0xfa, 0x39, 0x4a, 0xe3, 0x3b, 0x2b, 0x0d, 0x39, 0x40, 0x70, 0xce, 0xb7,
  0x17, 0xec, 0x33, 0xb5, 0x43, 0xa7, 0x9a, 0xd9, 0x64, 0x54, 0xc5, 0x08,
  0xb1, 0x05, 0x0e, 0xaa, 0xb4, 0x90, 0x15, 0x0a, 0x64, 0x1b, 0xb2, 0x43,
  0xc3, 0x15, 0x35, 0x00, 0xaf, 0x4d, 0x18, 0x06, 0xfe, 0xd8, 0xc9, 0xd8,
  0x68, 0x93, 0x19, 0x5a, 0x99, 0xdb, 0xca, 0x4a, 0x9a, 0xde, 0x52, 0x67,
  0x3d, 0x28, 0x96, 0x0c, 0xfb, 0x5d, 0xd2, 0xa0, 0x6a, 0x96, 0xcd, 0x0a,
  0x12, 0x67, 0xe1, 0x19, 0x47, 0x6f, 0xf9, 0x54, 0x63, 0x15, 0x1f, 0xfe,
  0x41, 0x6f, 0xd2, 0x20, 0x40, 0xd3, 0xce, 0x5e, 0x42, 0xd4, 0xe3, 0xf8,
  0x01, 0x34, 0xe4, 0x01, 0xc4, 0xa5, 0x1d, 0x6d, 0xff, 0xe7, 0x51, 0x9e,
  0x02, 0x2b, 0x97, 0xac, 0xa0, 0xa2, 0x9b, 0x71, 0x9a, 0x5e, 0x02, 0x16,
  0x2b, 0xfe, 0xed, 0xa5, 0xb7, 0xee, 0x03, 0x91, 0x28, 0x03, 0x31, 0xe4,
  0xff, 0x34, 0x04, 0x46, 0xf0, 0xdf, 0x0e, 0xb9, 0x28, 0x54, 0x90, 0xf8,
  0x3d, 0x67, 0x19, 0xaa, 0x59, 0x5c, 0x17, 0x25, 0xb1, 0xaa, 0x28, 0x61,
  0x14, 0x03, 0x37, 0xc2, 0x8e, 0x33, 0x0a, 0x99, 0x10, 0x4f, 0x32, 0xcb,
  0xcc, 0xbd, 0xcf, 0x11, 0x5b, 0x3a, 0xd8, 0x60, 0x9a, 0x67, 0x0e, 0x96,
  0xaa, 0x56, 0x8e, 0x17, 0x65, 0xfb, 0x18, 0x35, 0x1f, 0xc9, 0x48, 0x5f,
  0xff, 0x36, 0xdd, 0x1d, 0x4e, 0xef, 0x9e, 0x8f, 0xb8, 0xe6, 0x40, 0xe9,
  0x1b, 0x25, 0xc0, 0x09, 0x44, 0x17, 0xc5, 0x0c, 0x22, 0xba, 0x9c, 0x93,
  0x95, 0x66, 0x2f, 0x0f, 0xe1, 0x09, 0xe6, 0x67, 0xde, 0x26, 0x94, 0x1b,
  0x56, 0x17, 0xe6, 0xbe, 0xb0, 0x31, 0x16, 0x07, 0x05, 0xb5, 0xe4, 0x8c,
  0x91, 0x34, 0xa2, 0xcd, 0x16, 0xcf, 0xe2, 0xa2, 0x28, 0xbd, 0xed, 0x10,
  0x33, 0x2e, 0x2c, 0x4d, 0x2a, 0xe0, 0x23, 0x46, 0x04, 0x53, 0xf0, 0x9a,
  0xd5, 0xb7, 0xa3, 0x35, 0xd7, 0xb5, 0x15, 0x24, 0xd6, 0x9c, 0xdb, 0xc8,
  0x3c, 0x9a, 0x51, 0x3b, 0x07, 0xf6, 0x27, 0xc1, 0xc7, 0x6d, 0x55, 0xd0,
  0x07, 0x1d, 0x2b, 0x0c, 0x46, 0x6b, 0xc8, 0x52, 0x0c, 0xa8, 0xe0, 0xdc,
  0xa2, 0xd1, 0x14, 0x1f, 0xac, 0x52, 0xb1, 0xfa, 0xda, 0xf9, 0x3d, 0x15,
  0x17, 0x52, 0x54, 0x97, 0x10, 0x5c, 0x00, 0x2d, 0x9d, 0xeb, 0x6a, 0xb1,
  0xc7, 0xda, 0xa0, 0xa8, 0xc5, 0xcf, 0x33, 0xe6, 0x07, 0x9a, 0x56, 0x58,
  0x6c, 0xac, 0x2c, 0x5e, 0xe9, 0x64, 0xaa, 0xcc, 0xbd, 0xaf, 0x5f, 0xc4,
  0xf7, 0x9e, 0xc3, 0x99, 0xc9, 0x26, 0x40, 0xa8, 0xcf, 0xd2, 0x1d, 0x42,
  0x0d, 0xbf, 0xd3, 0x61, 0xa4, 0xe6, 0x52, 0xbb, 0xaa, 0xf4, 0x62, 0x25,
  0x47, 0xb9, 0xe2, 0x0e, 0x0d, 0xd0, 0x5c, 0xcd, 0x51, 0xa8, 0xd9, 0xac,
  0xf5, 0x91, 0x6d, 0x1d, 0x57, 0xd0, 0xca, 0x61, 0x4f, 0x8e, 0x0c, 0x21,
  0xe0, 0x27, 0xe6, 0xea, 0x48, 0x57, 0x01, 0xf2, 0x67, 0x4f, 0xba, 0x98,
  0xe5, 0x24, 0x4d, 0x6a, 0x5d, 0x35, 0x57, 0x27, 0x49, 0xcc, 0x0b, 0x93,
  0x2c, 0x9f, 0x0d, 0x58, 0x23, 0xc7, 0x38, 0x47, 0xb3, 0x3b, 0x2e, 0x2f,
  0xac, 0xca, 0xfa, 0xe3, 0x0b, 0x44, 0x4a, 0x09, 0x1d, 0xdc, 0x5e, 0x5f,
  0x1d, 0x4c, 0xe6, 0xa9, 0x2e, 0x91, 0x64, 0xc7, 0x6c, 0x05, 0xa1, 0x96,
  0xc2, 0x95, 0x59, 0x90, 0xc9, 0x16, 0x93, 0x10, 0x5a, 0xbf, 0x03, 0xde,
  0x5b, 0x97, 0x55, 0x20, 0x61, 0x82, 0x37, 0x4e, 0x8f, 0xf9, 0x63, 0x52,
  0x45, 0xe9, 0x4f, 0x4c, 0x41, 0xe5, 0x04, 0x43, 0x27, 0x12, 0x4c, 0x37,
  0x20, 0x5a, 0xfb, 0xa4, 0xee, 0xda, 0x97, 0x25, 0x44, 0x33, 0x6c, 0xe9,
  0x38, 0x30, 0xc1, 0xf1, 0xc6, 0xef, 0xd8, 0xf2, 0x13, 0xb5, 0xdd, 0xbf,
  0xb7, 0xb3, 0xf2, 0x31, 0xc9, 0x2f, 0xa4, 0xcd, 0xc2, 0x0b, 0x6e, 0xfe,
  0x6a, 0x10, 0x53, 0x4b, 0xc8, 0xf7, 0xfe, 0xd5, 0x20, 0x05, 0x47, 0xaa,
  0x25, 0x46, 0xd8, 0x3d, 0xd0, 0x36, 0xde, 0xf7, 0x21, 0x92, 0x15, 0x2b,
  0xec, 0xe3, 0x1b, 0x1c, 0x92, 0x55, 0xdc, 0xdb, 0xc8, 0x22, 0x05, 0x47,
  0x21, 0x1d, 0x8d, 0x1f, 0x43, 0xad, 0x00, 0x6b, 0x12, 0xf0, 0x65, 0xad,
  0x07, 0xeb, 0x9d, 0xe9, 0xd2, 0xe2, 0x22, 0x57, 0x3f, 0xfb, 0x24, 0xdd,
  0xcb, 0x3f, 0x07, 0x3d, 0xe5, 0x59, 0x9b, 0x15, 0xe5, 0x89, 0xed, 0x66,
  0x59, 0xf5, 0x94, 0xc7, 0xe6, 0x54, 0x52, 0xc2, 0x5e, 0xa8, 0xfb, 0x9b,
  0x61, 0x64, 0xe9, 0xb2, 0xd3, 0xea, 0x93, 0xbe, 0xc5, 0xa3, 0xed, 0xd1,
  0x9a, 0xd4, 0x3c, 0x62, 0x05, 0x5a, 0x1d, 0xdb, 0x36, 0xcf, 0xbd, 0xb9,
  0x53, 0x4f, 0x0d, 0x3c, 0x97, 0x36, 0x04, 0xd3, 0xef, 0x5c, 0x52, 0xc3,
  0xe4, 0xfb, 0x5b, 0xad, 0x24, 0xca, 0x26, 0x41, 0xfe, 0x6b, 0x38, 0x53,
  0x28, 0x55, 0xe7, 0x5d, 0x99, 0xab, 0xe0, 0x1e, 0xab, 0x19, 0x6e, 0x96,
  0x69, 0x8f, 0xd6, 0x46, 0x52, 0xf7, 0x2a, 0x1f, 0x5e, 0xa0, 0x54, 0x6b,
  0xe8, 0x9c, 0x40, 0xa0, 0xa7, 0xe2, 0xf4, 0x1e, 0x20, 0xab, 0x04, 0x46,
  0xdb, 0x4d, 0x31, 0x36, 0x98, 0x2c, 0x8f, 0xc1, 0xd3, 0x5a, 0xb6, 0xc2,
  0x35, 0xc7, 0x1b, 0x9a, 0x61, 0xd7, 0xe2, 0xfc, 0x46, 0xbc, 0x30, 0xd7,
  0xba, 0x4e, 0x0a, 0xc5, 0xcb, 0xee, 0x4b, 0xa1, 0xb5, 0x21, 0xb6, 0xa7,
  0xdf, 0x6d, 0x95, 0xee, 0xee, 0x5f, 0x4b, 0x9f, 0xcb, 0xcd, 0xf6, 0x90,
  0x56, 0xb2, 0xed, 0x4e, 0xe9, 0x0f, 0xc8, 0x3a, 0xa5, 0xe3, 0x6d, 0xd5,
  0xa3, 0xc6, 0x59, 0xd8, 0x66, 0xd7, 0x2c, 0x65, 0x21, 0xa1, 0xa0, 0x47,
  0x61, 0xf4, 0x50, 0xb8, 0xff, 0x34, 0xf0, 0x9a, 0x04, 0xb1, 0xc4, 0x6b,
  0xba, 0x08, 0xef, 0x12, 0x2c, 0xe3, 0x59, 0x11, 0x3a, 0x36, 0x98, 0x97,
  0x3a, 0x1e, 0xf5, 0x25, 0xc2, 0x66, 0xff, 0x3a, 0x03, 0x24, 0xbc, 0x03,
  0x50, 0x26, 0x8c, 0xb7, 0xfe, 0x07, 0xc1, 0xa6, 0xd9, 0x3b, 0x11, 0x06,
  0x41, 0x42, 0xeb, 0xbd, 0x4f, 0x2f, 0x39, 0xfe, 0x4f, 0x26, 0xe2, 0xa1,
  0x06, 0x9a, 0xa4, 0x1f, 0x51, 0x5d, 0x27, 0x48, 0x40, 0xe8, 0x2c, 0x42,
  0x3c, 0xd2, 0x9f, 0xcc, 0x3e, 0x22, 0x03, 0x2e, 0xbb, 0xd4, 0xc7, 0xec,
  0x43, 0x53, 0xa3, 0xd0, 0x9e, 0xf2, 0x27, 0xa9, 0x43, 0x02, 0x47, 0xe5,
  0x18, 0x2d, 0x55, 0xa2, 0x0c, 0xd5, 0xe2, 0x3f, 0xa1, 0x4d, 0xc0, 0x6a,
  0xfc, 0x3b, 0x0f, 0xd4, 0x51, 0x97, 0xc2, 0xb3, 0xdf, 0xc9, 0x66, 0x51,
  0xf0, 0x6a, 0x2b, 0x8e, 0x07, 0x8e, 0x17, 0xbc, 0xe3, 0x2a, 0x1b, 0xfc,
  0xfd, 0xc6, 0xd8, 0x31, 0xf3, 0xa1, 0xcf, 0x8e, 0xda, 0x4b, 0xde, 0x44,
  0xa4, 0xb6, 0x5a, 0x8f, 0xd6, 0x70, 0xc8, 0xfb, 0x6c, 0x03, 0x9c, 0x1d,
  0x5d, 0xc8, 0xe7, 0xd8, 0x6d, 0xfe, 0x3b, 0xd0, 0x26, 0x64, 0xb6, 0x04,
  0xf0, 0xee, 0xf8, 0x03, 0xe1, 0x29, 0x9f, 0xb3, 0xef, 0x14, 0x95, 0x43,
  0xfe, 0x00, 0xaf, 0x0b, 0x2e, 0xb3, 0x39, 0xc0, 0x5e, 0x20, 0x93, 0x66,
  0x5c, 0x4b, 0xe5, 0x2f, 0xfc, 0xcc, 0x6d, 0xdf, 0x10, 0x38, 0x34, 0xfd,
  0x2e, 0x09, 0xa7, 0x5b, 0x40, 0x1b, 0xcd, 0x2e, 0x11, 0xc3, 0xd9, 0xe5,
  0xb7, 0x1d, 0x58, 0x6d, 0x92, 0xbd, 0x01, 0x04, 0x10, 0xc8, 0xeb, 0x1e,
  0x9c, 0xe0, 0x43, 0x69, 0x3b, 0xe8, 0x5c, 0xe0, 0x63, 0x29, 0xae, 0x96,
  0x92, 0x92, 0xce, 0x9a, 0x34, 0x23, 0xc8, 0x09, 0xff, 0x5e, 0xd9, 0x19,
  0x96, 0x4a, 0xa9, 0x38, 0x1c, 0x72, 0x9e, 0xb3, 0xe9, 0xb9, 0xa9, 0x57,
  0x03, 0xd0, 0xe1, 0x38, 0xcf, 0xea, 0xf2, 0xf7, 0xa3, 0xb4, 0x35, 0x27,
  0x6c, 0x4a, 0xd5, 0x8d, 0x59, 0xa7, 0xc3, 0xf9, 0xb3, 0x6e, 0x65, 0x09,
  0xda, 0xee, 0x44, 0xd9, 0xee, 0x92, 0x9e, 0xaf, 0x33, 0x37, 0x9f, 0x01,
  0x46, 0x54, 0x00, 0x71, 0xc6, 0x86, 0xe9, 0x51, 0x46, 0x41, 0x59, 0x95,
  0xbc, 0x8e, 0x8e, 0x3a, 0xe9, 0x3c, 0x91, 0xf9, 0xf8, 0xba, 0x06, 0x44,
  0x11, 0xce, 0xa0, 0xae, 0x52, 0x44, 0x35, 0x2b, 0x9f, 0x4d, 0x41, 0x98,
  0x2c, 0xbf, 0xa5, 0x4f, 0x05, 0x71, 0x1d, 0x14, 0x11, 0x23, 0x26, 0x9e,
  0xc8, 0xbb, 0x47, 0x3d, 0xb7, 0xb1, 0xa2, 0x5b, 0xcf, 0x01, 0xdb, 0x3f,
  0xb0, 0x0f, 0x97, 0x07, 0xa3, 0x04, 0x3f, 0x0d, 0x00, 0x00, 0x25, 0x6f,
  0xbd, 0x46, 0xe1, 0x28, 0x03, 0xeb, 0xf5, 0x9a, 0xc5, 0x4f, 0xe9, 0xd7,
  0x63, 0x6a, 0xcc, 0x39, 0x4e, 0x3d, 0x95, 0x6c, 0xa6, 0x56, 0xc3, 0x0e,
  0xb3, 0xfb, 0x3a, 0xde, 0x98, 0x53, 0xb7, 0x2e, 0x62, 0x35, 0xdf, 0xd6,
  0x99, 0x07, 0xd8, 0xd1, 0x44, 0xff, 0xab, 0x55, 0x00, 0x25, 0xd0, 0x40,
  0xe4, 0xb4, 0xe2, 0xb7, 0x01, 0x3d, 0x2c, 0xb5, 0xa1, 0xeb, 0xb2, 0xd6,
  0x2d, 0x54, 0x6f, 0x6e, 0x9e, 0x05, 0x0b, 0xc5, 0xe0, 0xd2, 0x64, 0xb5,
  0x58, 0x3f, 0xbd, 0xc2, 0x97, 0xb3, 0x59, 0x3c, 0x66, 0x18, 0x5c, 0x37,
  0x2d, 0xa6, 0x0f, 0x9a, 0x2b, 0xce, 0x04, 0xf6, 0xfe, 0x51, 0xff, 0x54,
  0xd7, 0x91, 0xc7, 0xc1, 0x60, 0xb1, 0x2c, 0xcd, 0xb0, 0x32, 0x02, 0xa9,
  0x10, 0xf7, 0xa4, 0xc6, 0xc2, 0xf8, 0xce, 0x36, 0x51, 0x31, 0x13, 0x1b,
  0x34, 0x1a, 0xdd, 0x15, 0xd8, 0x3f, 0x16, 0x37, 0x3c, 0xd2, 0x0a, 0xa6,
  0xa9, 0xcb, 0x3c, 0x62, 0x21, 0x99, 0x01, 0x46, 0x23, 0x99, 0x32, 0xf8,
  0x0f, 0x4a, 0x54, 0xa6, 0x12, 0xb2, 0xfb, 0xc4, 0xfd, 0xce, 0x34, 0x5b,
  0xe2, 0xac, 0xd0, 0xac, 0xce, 0x62, 0xaa, 0x91, 0x72, 0xe3, 0x2a, 0x2f,
  0xfb, 0x13, 0x27, 0xa6, 0xb7, 0x01, 0x69, 0x30, 0x92, 0x25, 0xdf, 0xe8,
  0xf0, 0x56, 0x40, 0x2f, 0x2b, 0x4a, 0x6d, 0x01, 0xce, 0xa8, 0xd6, 0x5e,
  0xde, 0x33, 0x8a, 0x62, 0xfd, 0x0d, 0xa6, 0x51, 0x52, 0x20, 0xa5, 0x35,
  0x28, 0xd7, 0xc3, 0x0e, 0xe3, 0x98, 0xff, 0x58, 0xdc, 0xc7, 0x1f, 0xf3,
  0x35, 0x29, 0x44, 0x06, 0xaf, 0x10, 0xb7, 0xee, 0xe0, 0xf7, 0x3a, 0x0a,
  0xc4, 0x41, 0x85, 0x0a, 0x59, 0x24, 0x5d, 0x01, 0x9d, 0xee, 0x63, 0x07,
  0xd2, 0xfa, 0xff, 0xff, 0x04, 0x00, 0x00, 0x00, 0x78, 0x00, 0x00, 0x00,
  0x00, 0x00, 0x00, 0x00, 0x01, 0x00, 0x00, 0x00, 0x00, 0x00, 0x00, 0x00,
  0xfe, 0xff, 0xff, 0xff, 0x01, 0x00, 0x00, 0x00, 0x01, 0x00, 0x00, 0x00,
  0x00, 0x00, 0x00, 0x00, 0xff, 0xff, 0xff, 0xff, 0x00, 0x00, 0x00, 0x00,
  0x00, 0x00, 0x00, 0x00, 0xfe, 0xff, 0xff, 0xff, 0x00, 0x00, 0x00, 0x00,
  0x00, 0x00, 0x00, 0x00, 0x00, 0x00, 0x00, 0x00, 0xfe, 0xff, 0xff, 0xff,
  0x01, 0x00, 0x00, 0x00, 0xff, 0xff, 0xff, 0xff, 0x00, 0x00, 0x00, 0x00,
  0x00, 0x00, 0x00, 0x00, 0x00, 0x00, 0x00, 0x00, 0xff, 0xff, 0xff, 0xff,
  0x00, 0x00, 0x00, 0x00, 0x00, 0x00, 0x00, 0x00, 0x00, 0x00, 0x00, 0x00,
  0x01, 0x00, 0x00, 0x00, 0x00, 0x00, 0x00, 0x00, 0xff, 0xff, 0xff, 0xff,
  0x00, 0x00, 0x00, 0x00, 0xff, 0xff, 0xff, 0xff, 0xfe, 0xff, 0xff, 0xff,
  0x56, 0xfb, 0xff, 0xff, 0x04, 0x00, 0x00, 0x00, 0x58, 0x02, 0x00, 0x00,
  0x45, 0xa0, 0x38, 0x98, 0x23, 0x30, 0xb8, 0xda, 0x0c, 0x00, 0x19, 0x38,
  0xed, 0xa6, 0x6b, 0xc2, 0x9a, 0xdf, 0x5b, 0xa4, 0xf0, 0xef, 0x5e, 0x10,
  0x6d, 0x0a, 0xa6, 0x68, 0xef, 0xc7, 0x41, 0xa2, 0x58, 0x38, 0xaa, 0xfb,
  0x1d, 0xb3, 0xb4, 0x37, 0x6b, 0xb7, 0xbd, 0xfc, 0x1b, 0xaa, 0x03, 0x96,
  0xdd, 0xae, 0xde, 0x64, 0x28, 0x72, 0x09, 0xf2, 0xb3, 0xc6, 0xff, 0xd9,
  0xa0, 0x94, 0x2c, 0x53, 0x5f, 0x84, 0x06, 0x35, 0x09, 0x09, 0x0c, 0x9d,
  0xb8, 0x4d, 0x50, 0xdc, 0x04, 0xf2, 0x4c, 0x91, 0xe5, 0x69, 0x27, 0x05,
  0x2b, 0xb5, 0x65, 0xb7, 0x89, 0xca, 0x0d, 0xcc, 0xeb, 0x73, 0x4d, 0xbd,
  0xac, 0xb0, 0xd0, 0x26, 0x05, 0x0c, 0x92, 0xfc, 0xba, 0x6d, 0xda, 0x53,
  0xbd, 0x9e, 0xde, 0x3a, 0x5b, 0xc2, 0xb8, 0xf6, 0x39, 0xa4, 0x45, 0xd5,
  0x44, 0x8c, 0xfb, 0xdf, 0xa1, 0x60, 0xd3, 0x1c, 0xab, 0x5a, 0xb4, 0x9d,
  0x0b, 0xa8, 0xdd, 0xb0, 0x0a, 0x71, 0x40, 0x54, 0x51, 0x9f, 0x63, 0x4c,
  0x47, 0x0e, 0x81, 0x68, 0x9f, 0x31, 0xeb, 0x08, 0x17, 0x43, 0xea, 0xca,
  0x99, 0x0e, 0x1e, 0x8c, 0x57, 0x4c, 0xff, 0x68, 0xaf, 0x6b, 0xcd, 0x9b,
  0xa4, 0xa7, 0xe8, 0xe7, 0xba, 0xed, 0x21, 0x9d, 0x09, 0xc6, 0xb7, 0x40,
  0x64, 0x6d, 0x37, 0x73, 0x3e, 0x99, 0x3a, 0xff, 0xe4, 0xe8, 0xfa, 0x69,
  0x5b, 0xff, 0x09, 0xe1, 0xcf, 0x55, 0x30, 0x28, 0x96, 0x0b, 0x15, 0x08,
  0x8f, 0x47, 0xec, 0xc6, 0x51, 0xd8, 0xea, 0x48, 0x2a, 0x09, 0xae, 0x49,
  0x9b, 0x0d, 0x29, 0xce, 0x47, 0x04, 0xe9, 0x65, 0x29, 0x98, 0x5e, 0x8b,
  0xa6, 0xcb, 0xd7, 0x3e, 0xeb, 0xe7, 0xd3, 0x07, 0x38, 0x59, 0x03, 0xe4,
  0x74, 0xe5, 0xcd, 0x32, 0xa4, 0x3d, 0xfa, 0x04, 0x17, 0xa6, 0x15, 0xb4,
  0x73, 0xff, 0xec, 0x06, 0xe3, 0x28, 0x15, 0x44, 0x65, 0xf3, 0x1c, 0x75,
  0x11, 0x2a, 0xac, 0x43, 0x1d, 0x34, 0xa5, 0x1e, 0x47, 0x16, 0x16, 0x63,
  0x24, 0x8f, 0xde, 0xb2, 0xa8, 0x22, 0xfd, 0x6f, 0xab, 0x42, 0xc2, 0x3e,
  0xab, 0x0f, 0xab, 0xaf, 0xfa, 0x91, 0x75, 0x93, 0x4c, 0xfd, 0x1c, 0x76,
  0xb5, 0x3d, 0x0c, 0xd1, 0x30, 0x0a, 0xc4, 0xa2, 0x1c, 0x10, 0x0c, 0x55,
  0xe0, 0xe8, 0xb7, 0xc3, 0xdb, 0xbd, 0x8e, 0xa9, 0xb2, 0x0f, 0x6b, 0x9c,
  0x1d, 0xe5, 0x3e, 0xdc, 0x44, 0x74, 0x00, 0xdf, 0x8b, 0xa4, 0x4a, 0x8d,
  0x5d, 0xdb, 0x8d, 0x09, 0x61, 0x1e, 0xa1, 0xc8, 0xdc, 0x0c, 0xc7, 0x12,
  0xac, 0xc7, 0x9b, 0xd4, 0x02, 0x93, 0x17, 0x92, 0xe4, 0x61, 0xcf, 0x10,
  0xd6, 0x74, 0x68, 0x9f, 0x0c, 0x91, 0x55, 0x02, 0xf2, 0x27, 0xd3, 0x42,
  0x6a, 0x9b, 0xe7, 0x2d, 0x3c, 0x26, 0xb0, 0x0f, 0xad, 0xe8, 0x6d, 0xf5,
  0xf1, 0xf2, 0xbb, 0x08, 0x44, 0xb6, 0x92, 0xd5, 0xeb, 0x20, 0x8c, 0x33,
  0xaf, 0x9a, 0x67, 0x4a, 0xac, 0x54, 0x40, 0xea, 0xe1, 0xe5, 0x20, 0x6a,
  0x20, 0x67, 0x04, 0xaf, 0xc3, 0xff, 0x40, 0x1e, 0xa6, 0x0d, 0xc6, 0x4c,
  0x9c, 0x33, 0x10, 0x86, 0xb5, 0x83, 0x44, 0xec, 0x5a, 0x4d, 0x1f, 0x43,
  0xa5, 0x34, 0x32, 0x6d, 0x58, 0xa9, 0x97, 0xfd, 0x4c, 0xdd, 0xc5, 0x52,
  0xc1, 0x45, 0x5d, 0xbe, 0x70, 0x14, 0x34, 0xa1, 0xbe, 0xa0, 0x1e, 0xb2,
  0xcf, 0xf9, 0xa1, 0x27, 0x2d, 0xa3, 0xda, 0xe7, 0x46, 0xae, 0x5a, 0x40,
  0x04, 0xd2, 0xac, 0x5a, 0x94, 0xdc, 0x28, 0x0b, 0x0e, 0x4a, 0x2c, 0xdd,
  0x0a, 0x2f, 0x07, 0xf1, 0x01, 0x43, 0xae, 0xf9, 0x51, 0x43, 0x97, 0xa9,
  0x37, 0x1a, 0xf6, 0xb8, 0x24, 0x6f, 0x07, 0x75, 0x8e, 0x22, 0xe9, 0xd1,
  0xd0, 0x46, 0x46, 0x29, 0x53, 0x5f, 0xa7, 0x0a, 0x22, 0x78, 0x5d, 0x59,
  0x24, 0x0f, 0x89, 0x5a, 0xf4, 0x5a, 0x90, 0xd7, 0x3c, 0xd5, 0xa1, 0x28,
  0xd8, 0xb0, 0x10, 0xae, 0xdd, 0xd0, 0x3c, 0x3c, 0x48, 0xc4, 0xec, 0x6a,
  0x53, 0xb4, 0x2e, 0x41, 0xa9, 0x0c, 0x58, 0x2d, 0xd7, 0xdb, 0xad, 0x95,
  0x45, 0x0a, 0x6d, 0xfd, 0x99, 0x2f, 0x67, 0x44, 0x10, 0xb3, 0xc5, 0x6d,
  0xef, 0xd0, 0x46, 0x02, 0x61, 0x5c, 0x22, 0x89, 0x60, 0x6d, 0x00, 0x3f,
  0xcb, 0xa1, 0x3d, 0x19, 0x17, 0x93, 0xef, 0x56, 0x30, 0x8a, 0x6f, 0x11,
  0xc5, 0x8f, 0x17, 0x74, 0x9a, 0xc7, 0x59, 0x08, 0x01, 0x27, 0x6d, 0x5c,
  0xba, 0xfd, 0xff, 0xff, 0x04, 0x00, 0x00, 0x00, 0x50, 0x00, 0x00, 0x00,
  0x00, 0x00, 0x00, 0x00, 0xff, 0xff, 0xff, 0xff, 0xfd, 0xff, 0xff, 0xff,
  0x00, 0x00, 0x00, 0x00, 0x01, 0x00, 0x00, 0x00, 0xff, 0xff, 0xff, 0xff,
  0x00, 0x00, 0x00, 0x00, 0xfd, 0xff, 0xff, 0xff, 0xfe, 0xff, 0xff, 0xff,
  0x00, 0x00, 0x00, 0x00, 0x00, 0x00, 0x00, 0x00, 0x00, 0x00, 0x00, 0x00,
  0x00, 0x00, 0x00, 0x00, 0x00, 0x00, 0x00, 0x00, 0xfd, 0xff, 0xff, 0xff,
  0x01, 0x00, 0x00, 0x00, 0xfe, 0xff, 0xff, 0xff, 0x00, 0x00, 0x00, 0x00,
  0xfe, 0xff, 0xff, 0xff, 0xfe, 0xff, 0xff, 0xff, 0x16, 0xfe, 0xff, 0xff,
  0x04, 0x00, 0x00, 0x00, 0xc8, 0x00, 0x00, 0x00, 0xcc, 0x64, 0x54, 0xb1,
  0x4c, 0x40, 0xa0, 0x9d, 0x93, 0x86, 0x72, 0xcb, 0x84, 0xec, 0x71, 0x62,
  0xd4, 0x5f, 0x94, 0x8c, 0xb7, 0x4f, 0xf1, 0x0a, 0x48, 0x2b, 0xd9, 0x77,
  0x11, 0xe1, 0x69, 0x88, 0x45, 0x45, 0x0a, 0x9c, 0x82, 0x53, 0x4f, 0xc7,
  0xca, 0x5b, 0x02, 0xce, 0x19, 0xb3, 0x57, 0x95, 0xb4, 0x4b, 0xe4, 0x6c,
  0x64, 0x25, 0xe0, 0xed, 0x04, 0x32, 0xa7, 0x73, 0x81, 0xd7, 0x19, 0x0f,
  0xc0, 0x63, 0x44, 0x4d, 0x66, 0x31, 0xfb, 0x7e, 0xd6, 0x17, 0xab, 0x5f,
  0x4b, 0xe1, 0xd7, 0x00, 0xb1, 0x94, 0x58, 0xf9, 0x5b, 0x70, 0xa4, 0x1d,
  0x61, 0xb1, 0x39, 0xc8, 0xf5, 0xeb, 0xdd, 0xca, 0xa1, 0xa6, 0xf8, 0xac,
  0x8a, 0xdd, 0x99, 0x1a, 0xe4, 0xc0, 0x91, 0x90, 0xc9, 0x4f, 0x63, 0x95,
  0x85, 0x54, 0x0b, 0xda, 0xcd, 0x5a, 0xff, 0x96, 0xc8, 0x6a, 0x1d, 0x56,
  0x2b, 0x9d, 0x5c, 0x3d, 0x1c, 0x32, 0x96, 0x9a, 0x9d, 0x79, 0x5f, 0x91,
  0x29, 0xb0, 0x58, 0x1e, 0x9f, 0xcf, 0x30, 0xfe, 0x3d, 0xd6, 0x1a, 0xbb,
  0xcd, 0x86, 0x68, 0x0f, 0x3d, 0xd7, 0x60, 0x13, 0x25, 0x2f, 0x33, 0x91,
  0x8d, 0x81, 0x4e, 0xbc, 0xaf, 0x8d, 0x2d, 0xe8, 0xc1, 0x5a, 0x78, 0xf6,
  0x53, 0xd1, 0xdc, 0x15, 0xcc, 0x04, 0xcd, 0xe9, 0xbb, 0xc8, 0xb3, 0x62,
  0x41, 0xec, 0x02, 0x35, 0x23, 0xa4, 0x83, 0xf1, 0x0c, 0x97, 0xcc, 0x0b,
  0xd3, 0x2f, 0x23, 0x16, 0xea, 0xfe, 0xff, 0xff, 0x04, 0x00, 0x00, 0x00,
  0x28, 0x00, 0x00, 0x00, 0x17, 0x00, 0x00, 0x00, 0xfb, 0xff, 0xff, 0xff,
  0xf3, 0xff, 0xff, 0xff, 0xf6, 0xff, 0xff, 0xff, 0x00, 0x00, 0x00, 0x00,
  0xf7, 0xff, 0xff, 0xff, 0xf5, 0xff, 0xff, 0xff, 0xf0, 0xff, 0xff, 0xff,
  0x22, 0x00, 0x00, 0x00, 0x1e, 0x00, 0x00, 0x00, 0x1e, 0xff, 0xff, 0xff,
  0x04, 0x00, 0x00, 0x00, 0x1e, 0x00, 0x00, 0x00, 0xed, 0xd5, 0x9d, 0xbe,
  0x83, 0x16, 0x83, 0xf0, 0x69, 0x47, 0x88, 0x7c, 0xd2, 0xe3, 0x5c, 0xab,
  0x9c, 0x2b, 0x83, 0x07, 0x8a, 0x39, 0x32, 0x26, 0x9f, 0xe7, 0x7f, 0x4a,
  0xe4, 0xb4, 0x00, 0x00, 0x4a, 0xff, 0xff, 0xff, 0x04, 0x00, 0x00, 0x00,
  0x0c, 0x00, 0x00, 0x00, 0x2f, 0x00, 0x00, 0x00, 0x14, 0x00, 0x00, 0x00,
  0xd2, 0xff, 0xff, 0xff, 0x30, 0xff, 0xff, 0xff, 0x34, 0xff, 0xff, 0xff,
  0x0f, 0x00, 0x00, 0x00, 0x4d, 0x4c, 0x49, 0x52, 0x20, 0x43, 0x6f, 0x6e,
  0x76, 0x65, 0x72, 0x74, 0x65, 0x64, 0x2e, 0x00, 0x01, 0x00, 0x00, 0x00,
  0x14, 0x00, 0x00, 0x00, 0x00, 0x00, 0x0e, 0x00, 0x18, 0x00, 0x14, 0x00,
  0x10, 0x00, 0x0c, 0x00, 0x08, 0x00, 0x04, 0x00, 0x0e, 0x00, 0x00, 0x00,
  0x14, 0x00, 0x00, 0x00, 0x1c, 0x00, 0x00, 0x00, 0x98, 0x01, 0x00, 0x00,
  0x9c, 0x01, 0x00, 0x00, 0xa0, 0x01, 0x00, 0x00, 0x04, 0x00, 0x00, 0x00,
  0x6d, 0x61, 0x69, 0x6e, 0x00, 0x00, 0x00, 0x00, 0x06, 0x00, 0x00, 0x00,
  0x40, 0x01, 0x00, 0x00, 0xf8, 0x00, 0x00, 0x00, 0xc0, 0x00, 0x00, 0x00,
  0x88, 0x00, 0x00, 0x00, 0x50, 0x00, 0x00, 0x00, 0x14, 0x00, 0x00, 0x00,
  0x00, 0x00, 0x0e, 0x00, 0x1a, 0x00, 0x14, 0x00, 0x10, 0x00, 0x0c, 0x00,
  0x0b, 0x00, 0x04, 0x00, 0x0e, 0x00, 0x00, 0x00, 0x1c, 0x00, 0x00, 0x00,
  0x00, 0x00, 0x00, 0x09, 0x1c, 0x00, 0x00, 0x00, 0x20, 0x00, 0x00, 0x00,
  0x01, 0x00, 0x00, 0x00, 0x00, 0x00, 0x06, 0x00, 0x08, 0x00, 0x04, 0x00,
  0x06, 0x00, 0x00, 0x00, 0x00, 0x00, 0x80, 0x3f, 0x01, 0x00, 0x00, 0x00,
  0x10, 0x00, 0x00, 0x00, 0x01, 0x00, 0x00, 0x00, 0x0f, 0x00, 0x00, 0x00,
  0x2e, 0xff, 0xff, 0xff, 0x14, 0x00, 0x00, 0x00, 0x00, 0x00, 0x00, 0x08,
  0x10, 0x00, 0x00, 0x00, 0x14, 0x00, 0x00, 0x00, 0x04, 0x00, 0x04, 0x00,
  0x04, 0x00, 0x00, 0x00, 0x01, 0x00, 0x00, 0x00, 0x0f, 0x00, 0x00, 0x00,
  0x03, 0x00, 0x00, 0x00, 0x0e, 0x00, 0x00, 0x00, 0x02, 0x00, 0x00, 0x00,
  0x01, 0x00, 0x00, 0x00, 0x62, 0xff, 0xff, 0xff, 0x10, 0x00, 0x00, 0x00,
  0x00, 0x00, 0x00, 0x08, 0x10, 0x00, 0x00, 0x00, 0x14, 0x00, 0x00, 0x00,
  0x52, 0xff, 0xff, 0xff, 0x00, 0x00, 0x00, 0x01, 0x01, 0x00, 0x00, 0x00,
  0x0e, 0x00, 0x00, 0x00, 0x03, 0x00, 0x00, 0x00, 0x0d, 0x00, 0x00, 0x00,
  0x04, 0x00, 0x00, 0x00, 0x03, 0x00, 0x00, 0x00, 0x96, 0xff, 0xff, 0xff,
  0x10, 0x00, 0x00, 0x00, 0x00, 0x00, 0x00, 0x08, 0x10, 0x00, 0x00, 0x00,
  0x14, 0x00, 0x00, 0x00, 0x86, 0xff, 0xff, 0xff, 0x00, 0x00, 0x00, 0x01,
  0x01, 0x00, 0x00, 0x00, 0x0d, 0x00, 0x00, 0x00, 0x03, 0x00, 0x00, 0x00,
  0x0c, 0x00, 0x00, 0x00, 0x06, 0x00, 0x00, 0x00, 0x05, 0x00, 0x00, 0x00,
  0xca, 0xff, 0xff, 0xff, 0x10, 0x00, 0x00, 0x00, 0x00, 0x00, 0x00, 0x08,
  0x10, 0x00, 0x00, 0x00, 0x14, 0x00, 0x00, 0x00, 0xba, 0xff, 0xff, 0xff,
  0x00, 0x00, 0x00, 0x01, 0x01, 0x00, 0x00, 0x00, 0x0c, 0x00, 0x00, 0x00,
  0x03, 0x00, 0x00, 0x00, 0x0b, 0x00, 0x00, 0x00, 0x08, 0x00, 0x00, 0x00,
  0x07, 0x00, 0x00, 0x00, 0x00, 0x00, 0x0e, 0x00, 0x16, 0x00, 0x00, 0x00,
  0x10, 0x00, 0x0c, 0x00, 0x0b, 0x00, 0x04, 0x00, 0x0e, 0x00, 0x00, 0x00,
  0x18, 0x00, 0x00, 0x00, 0x00, 0x00, 0x00, 0x08, 0x18, 0x00, 0x00, 0x00,
  0x1c, 0x00, 0x00, 0x00, 0x00, 0x00, 0x06, 0x00, 0x08, 0x00, 0x07, 0x00,
  0x06, 0x00, 0x00, 0x00, 0x00, 0x00, 0x00, 0x01, 0x01, 0x00, 0x00, 0x00,
  0x0b, 0x00, 0x00, 0x00, 0x03, 0x00, 0x00, 0x00, 0x00, 0x00, 0x00, 0x00,
  0x0a, 0x00, 0x00, 0x00, 0x09, 0x00, 0x00, 0x00, 0x01, 0x00, 0x00, 0x00,
  0x10, 0x00, 0x00, 0x00, 0x01, 0x00, 0x00, 0x00, 0x00, 0x00, 0x00, 0x00,
  0x11, 0x00, 0x00, 0x00, 0x10, 0x08, 0x00, 0x00, 0x80, 0x07, 0x00, 0x00,
  0x14, 0x07, 0x00, 0x00, 0x98, 0x06, 0x00, 0x00, 0x2c, 0x06, 0x00, 0x00,
  0xb0, 0x05, 0x00, 0x00, 0x44, 0x05, 0x00, 0x00, 0xc8, 0x04, 0x00, 0x00,
  0x5c, 0x04, 0x00, 0x00, 0xe8, 0x03, 0x00, 0x00, 0x7c, 0x03, 0x00, 0x00,
  0xe0, 0x02, 0x00, 0x00, 0x3c, 0x02, 0x00, 0x00, 0x98, 0x01, 0x00, 0x00,
  0xf4, 0x00, 0x00, 0x00, 0x70, 0x00, 0x00, 0x00, 0x04, 0x00, 0x00, 0x00,
  0x4a, 0xf8, 0xff, 0xff, 0x00, 0x00, 0x00, 0x01, 0x14, 0x00, 0x00, 0x00,
  0x30, 0x00, 0x00, 0x00, 0x11, 0x00, 0x00, 0x00, 0x00, 0x00, 0x00, 0x09,
  0x44, 0x00, 0x00, 0x00, 0x34, 0xf8, 0xff, 0xff, 0x08, 0x00, 0x00, 0x00,
  0x10, 0x00, 0x00, 0x00, 0x01, 0x00, 0x00, 0x00, 0x80, 0xff, 0xff, 0xff,
  0xff, 0xff, 0xff, 0xff, 0x01, 0x00, 0x00, 0x00, 0x00, 0x00, 0x80, 0x3b,
  0x19, 0x00, 0x00, 0x00, 0x53, 0x74, 0x61, 0x74, 0x65, 0x66, 0x75, 0x6c,
  0x50, 0x61, 0x72, 0x74, 0x69, 0x74, 0x69, 0x6f, 0x6e, 0x65, 0x64, 0x43,
  0x61, 0x6c, 0x6c, 0x3a, 0x30, 0x00, 0x00, 0x00, 0x02, 0x00, 0x00, 0x00,
  0x01, 0x00, 0x00, 0x00, 0x03, 0x00, 0x00, 0x00, 0xb2, 0xf8, 0xff, 0xff,
  0x00, 0x00, 0x00, 0x01, 0x14, 0x00, 0x00, 0x00, 0x30, 0x00, 0x00, 0x00,
  0x10, 0x00, 0x00, 0x00, 0x00, 0x00, 0x00, 0x09, 0x5c, 0x00, 0x00, 0x00,
  0x9c, 0xf8, 0xff, 0xff, 0x08, 0x00, 0x00, 0x00, 0x10, 0x00, 0x00, 0x00,
  0x01, 0x00, 0x00, 0x00, 0xf7, 0xff, 0xff, 0xff, 0xff, 0xff, 0xff, 0xff,
  0x01, 0x00, 0x00, 0x00, 0x71, 0xe7, 0x30, 0x3f, 0x32, 0x00, 0x00, 0x00,
  0x73, 0x65, 0x71, 0x75, 0x65, 0x6e, 0x74, 0x69, 0x61, 0x6c, 0x2f, 0x79,
  0x5f, 0x70, 0x72, 0x65, 0x64, 0x2f, 0x4d, 0x61, 0x74, 0x4d, 0x75, 0x6c,
  0x3b, 0x73, 0x65, 0x71, 0x75, 0x65, 0x6e, 0x74, 0x69, 0x61, 0x6c, 0x2f,
  0x79, 0x5f, 0x70, 0x72, 0x65, 0x64, 0x2f, 0x42, 0x69, 0x61, 0x73, 0x41,
  0x64, 0x64, 0x00, 0x00, 0x02, 0x00, 0x00, 0x00, 0x01, 0x00, 0x00, 0x00,
  0x03, 0x00, 0x00, 0x00, 0x32, 0xf9, 0xff, 0xff, 0x00, 0x00, 0x00, 0x01,
  0x14, 0x00, 0x00, 0x00, 0x34, 0x00, 0x00, 0x00, 0x0f, 0x00, 0x00, 0x00,
  0x00, 0x00, 0x00, 0x09, 0x7c, 0x00, 0x00, 0x00, 0x1c, 0xf9, 0xff, 0xff,
  0x08, 0x00, 0x00, 0x00, 0x14, 0x00, 0x00, 0x00, 0x01, 0x00, 0x00, 0x00,
  0x80, 0xff, 0xff, 0xff, 0xff, 0xff, 0xff, 0xff, 0x00, 0x00, 0x00, 0x00,
  0x01, 0x00, 0x00, 0x00, 0x3c, 0x59, 0x20, 0x3f, 0x4c, 0x00, 0x00, 0x00,
  0x73, 0x65, 0x71, 0x75, 0x65, 0x6e, 0x74, 0x69, 0x61, 0x6c, 0x2f, 0x64,
  0x65, 0x6e, 0x73, 0x65, 0x5f, 0x33, 0x2f, 0x4d, 0x61, 0x74, 0x4d, 0x75,
  0x6c, 0x3b, 0x73, 0x65, 0x71, 0x75, 0x65, 0x6e, 0x74, 0x69, 0x61, 0x6c,
  0x2f, 0x64, 0x65, 0x6e, 0x73, 0x65, 0x5f, 0x33, 0x2f, 0x52, 0x65, 0x6c,
  0x75, 0x3b, 0x73, 0x65, 0x71, 0x75, 0x65, 0x6e, 0x74, 0x69, 0x61, 0x6c,
  0x2f, 0x64, 0x65, 0x6e, 0x73, 0x65, 0x5f, 0x33, 0x2f, 0x42, 0x69, 0x61,
  0x73, 0x41, 0x64, 0x64, 0x00, 0x00, 0x00, 0x00, 0x02, 0x00, 0x00, 0x00,
  0x01, 0x00, 0x00, 0x00, 0x0a, 0x00, 0x00, 0x00, 0xd2, 0xf9, 0xff, 0xff,
  0x00, 0x00, 0x00, 0x01, 0x14, 0x00, 0x00, 0x00, 0x34, 0x00, 0x00, 0x00,
  0x0e, 0x00, 0x00, 0x00, 0x00, 0x00, 0x00, 0x09, 0x7c, 0x00, 0x00, 0x00,
  0xbc, 0xf9, 0xff, 0xff, 0x08, 0x00, 0x00, 0x00, 0x14, 0x00, 0x00, 0x00,
  0x01, 0x00, 0x00, 0x00, 0x80, 0xff, 0xff, 0xff, 0xff, 0xff, 0xff, 0xff,
  0x00, 0x00, 0x00, 0x00, 0x01, 0x00, 0x00, 0x00, 0xf2, 0x85, 0xc1, 0x3f,
  0x4c, 0x00, 0x00, 0x00, 0x73, 0x65, 0x71, 0x75, 0x65, 0x6e, 0x74, 0x69,
  0x61, 0x6c, 0x2f, 0x64, 0x65, 0x6e, 0x73, 0x65, 0x5f, 0x32, 0x2f, 0x4d,
  0x61, 0x74, 0x4d, 0x75, 0x6c, 0x3b, 0x73, 0x65, 0x71, 0x75, 0x65, 0x6e,
  0x74, 0x69, 0x61, 0x6c, 0x2f, 0x64, 0x65, 0x6e, 0x73, 0x65, 0x5f, 0x32,
  0x2f, 0x52, 0x65, 0x6c, 0x75, 0x3b, 0x73, 0x65, 0x71, 0x75, 0x65, 0x6e,
  0x74, 0x69, 0x61, 0x6c, 0x2f, 0x64, 0x65, 0x6e, 0x73, 0x65, 0x5f, 0x32,
  0x2f, 0x42, 0x69, 0x61, 0x73, 0x41, 0x64, 0x64, 0x00, 0x00, 0x00, 0x00,
  0x02, 0x00, 0x00, 0x00, 0x01, 0x00, 0x00, 0x00, 0x14, 0x00, 0x00, 0x00,
  0x72, 0xfa, 0xff, 0xff, 0x00, 0x00, 0x00, 0x01, 0x14, 0x00, 0x00, 0x00,
  0x34, 0x00, 0x00, 0x00, 0x0d, 0x00, 0x00, 0x00, 0x00, 0x00, 0x00, 0x09,
  0x7c, 0x00, 0x00, 0x00, 0x5c, 0xfa, 0xff, 0xff, 0x08, 0x00, 0x00, 0x00,
  0x14, 0x00, 0x00, 0x00, 0x01, 0x00, 0x00, 0x00, 0x80, 0xff, 0xff, 0xff,
  0xff, 0xff, 0xff, 0xff, 0x00, 0x00, 0x00, 0x00, 0x01, 0x00, 0x00, 0x00,
  0x6d, 0xa9, 0x43, 0x40, 0x4c, 0x00, 0x00, 0x00, 0x73, 0x65, 0x71, 0x75,
  0x65, 0x6e, 0x74, 0x69, 0x61, 0x6c, 0x2f, 0x64, 0x65, 0x6e, 0x73, 0x65,
  0x5f, 0x31, 0x2f, 0x4d, 0x61, 0x74, 0x4d, 0x75, 0x6c, 0x3b, 0x73, 0x65,
  0x71, 0x75, 0x65, 0x6e, 0x74, 0x69, 0x61, 0x6c, 0x2f, 0x64, 0x65, 0x6e,
  0x73, 0x65, 0x5f, 0x31, 0x2f, 0x52, 0x65, 0x6c, 0x75, 0x3b, 0x73, 0x65,
  0x71, 0x75, 0x65, 0x6e, 0x74, 0x69, 0x61, 0x6c, 0x2f, 0x64, 0x65, 0x6e,
  0x73, 0x65, 0x5f, 0x31, 0x2f, 0x42, 0x69, 0x61, 0x73, 0x41, 0x64, 0x64,
  0x00, 0x00, 0x00, 0x00, 0x02, 0x00, 0x00, 0x00, 0x01, 0x00, 0x00, 0x00,
  0x1e, 0x00, 0x00, 0x00, 0x12, 0xfb, 0xff, 0xff, 0x00, 0x00, 0x00, 0x01,
  0x14, 0x00, 0x00, 0x00, 0x34, 0x00, 0x00, 0x00, 0x0c, 0x00, 0x00, 0x00,
  0x00, 0x00, 0x00, 0x09, 0x74, 0x00, 0x00, 0x00, 0xfc, 0xfa, 0xff, 0xff,
  0x08, 0x00, 0x00, 0x00, 0x14, 0x00, 0x00, 0x00, 0x01, 0x00, 0x00, 0x00,
  0x80, 0xff, 0xff, 0xff, 0xff, 0xff, 0xff, 0xff, 0x00, 0x00, 0x00, 0x00,
  0x01, 0x00, 0x00, 0x00, 0x1a, 0xc6, 0xbd, 0x40, 0x46, 0x00, 0x00, 0x00,
  0x73, 0x65, 0x71, 0x75, 0x65, 0x6e, 0x74, 0x69, 0x61, 0x6c, 0x2f, 0x64,
  0x65, 0x6e, 0x73, 0x65, 0x2f, 0x4d, 0x61, 0x74, 0x4d, 0x75, 0x6c, 0x3b,
  0x73, 0x65, 0x71, 0x75, 0x65, 0x6e, 0x74, 0x69, 0x61, 0x6c, 0x2f, 0x64,
  0x65, 0x6e, 0x73, 0x65, 0x2f, 0x52, 0x65, 0x6c, 0x75, 0x3b, 0x73, 0x65,
  0x71, 0x75, 0x65, 0x6e, 0x74, 0x69, 0x61, 0x6c, 0x2f, 0x64, 0x65, 0x6e,
  0x73, 0x65, 0x2f, 0x42, 0x69, 0x61, 0x73, 0x41, 0x64, 0x64, 0x00, 0x00,
  0x02, 0x00, 0x00, 0x00, 0x01, 0x00, 0x00, 0x00, 0x3c, 0x00, 0x00, 0x00,
  0xaa, 0xfb, 0xff, 0xff, 0x00, 0x00, 0x00, 0x01, 0x14, 0x00, 0x00, 0x00,
  0x34, 0x00, 0x00, 0x00, 0x0b, 0x00, 0x00, 0x00, 0x00, 0x00, 0x00, 0x09,
  0x44, 0x00, 0x00, 0x00, 0x94, 0xfb, 0xff, 0xff, 0x08, 0x00, 0x00, 0x00,
  0x14, 0x00, 0x00, 0x00, 0x01, 0x00, 0x00, 0x00, 0x00, 0x00, 0x00, 0x00,
  0x00, 0x00, 0x00, 0x00, 0x00, 0x00, 0x00, 0x00, 0x01, 0x00, 0x00, 0x00,
  0x02, 0x4c, 0x2e, 0x3b, 0x17, 0x00, 0x00, 0x00, 0x73, 0x65, 0x71, 0x75,
  0x65, 0x6e, 0x74, 0x69, 0x61, 0x6c, 0x2f, 0x64, 0x65, 0x6e, 0x73, 0x65,
  0x2f, 0x4d, 0x61, 0x74, 0x4d, 0x75, 0x6c, 0x00, 0x02, 0x00, 0x00, 0x00,
  0x3c, 0x00, 0x00, 0x00, 0x04, 0x00, 0x00, 0x00, 0x12, 0xfc, 0xff, 0xff,
  0x00, 0x00, 0x00, 0x01, 0x14, 0x00, 0x00, 0x00, 0x30, 0x00, 0x00, 0x00,
  0x0a, 0x00, 0x00, 0x00, 0x00, 0x00, 0x00, 0x02, 0x50, 0x00, 0x00, 0x00,
  0xfc, 0xfb, 0xff, 0xff, 0x08, 0x00, 0x00, 0x00, 0x10, 0x00, 0x00, 0x00,
  0x01, 0x00, 0x00, 0x00, 0x00, 0x00, 0x00, 0x00, 0x00, 0x00, 0x00, 0x00,
  0x01, 0x00, 0x00, 0x00, 0x25, 0x84, 0xfe, 0x3c, 0x27, 0x00, 0x00, 0x00,
  0x73, 0x65, 0x71, 0x75, 0x65, 0x6e, 0x74, 0x69, 0x61, 0x6c, 0x2f, 0x64,
  0x65, 0x6e, 0x73, 0x65, 0x2f, 0x42, 0x69, 0x61, 0x73, 0x41, 0x64, 0x64,
  0x2f, 0x52, 0x65, 0x61, 0x64, 0x56, 0x61, 0x72, 0x69, 0x61, 0x62, 0x6c,
  0x65, 0x4f, 0x70, 0x00, 0x01, 0x00, 0x00, 0x00, 0x3c, 0x00, 0x00, 0x00,
  0x82, 0xfc, 0xff, 0xff, 0x00, 0x00, 0x00, 0x01, 0x14, 0x00, 0x00, 0x00,
  0x30, 0x00, 0x00, 0x00, 0x09, 0x00, 0x00, 0x00, 0x00, 0x00, 0x00, 0x09,
  0x44, 0x00, 0x00, 0x00, 0x6c, 0xfc, 0xff, 0xff, 0x08, 0x00, 0x00, 0x00,
  0x10, 0x00, 0x00, 0x00, 0x01, 0x00, 0x00, 0x00, 0x00, 0x00, 0x00, 0x00,
  0x00, 0x00, 0x00, 0x00, 0x01, 0x00, 0x00, 0x00, 0xdf, 0x5a, 0x14, 0x3b,
  0x19, 0x00, 0x00, 0x00, 0x73, 0x65, 0x71, 0x75, 0x65, 0x6e, 0x74, 0x69,
  0x61, 0x6c, 0x2f, 0x64, 0x65, 0x6e, 0x73, 0x65, 0x5f, 0x31, 0x2f, 0x4d,
  0x61, 0x74, 0x4d, 0x75, 0x6c, 0x00, 0x00, 0x00, 0x02, 0x00, 0x00, 0x00,
  0x1e, 0x00, 0x00, 0x00, 0x3c, 0x00, 0x00, 0x00, 0xea, 0xfc, 0xff, 0xff,
  0x00, 0x00, 0x00, 0x01, 0x14, 0x00, 0x00, 0x00, 0x34, 0x00, 0x00, 0x00,
  0x08, 0x00, 0x00, 0x00, 0x00, 0x00, 0x00, 0x02, 0x58, 0x00, 0x00, 0x00,
  0xd4, 0xfc, 0xff, 0xff, 0x08, 0x00, 0x00, 0x00, 0x14, 0x00, 0x00, 0x00,
  0x01, 0x00, 0x00, 0x00, 0x00, 0x00, 0x00, 0x00, 0x00, 0x00, 0x00, 0x00,
  0x00, 0x00, 0x00, 0x00, 0x01, 0x00, 0x00, 0x00, 0xc8, 0xf3, 0x5b, 0x3c,
  0x29, 0x00, 0x00, 0x00, 0x73, 0x65, 0x71, 0x75, 0x65, 0x6e, 0x74, 0x69,
  0x61, 0x6c, 0x2f, 0x64, 0x65, 0x6e, 0x73, 0x65, 0x5f, 0x31, 0x2f, 0x42,
  0x69, 0x61, 0x73, 0x41, 0x64, 0x64, 0x2f, 0x52, 0x65, 0x61, 0x64, 0x56,
  0x61, 0x72, 0x69, 0x61, 0x62, 0x6c, 0x65, 0x4f, 0x70, 0x00, 0x00, 0x00,
  0x01, 0x00, 0x00, 0x00, 0x1e, 0x00, 0x00, 0x00, 0x62, 0xfd, 0xff, 0xff,
  0x00, 0x00, 0x00, 0x01, 0x14, 0x00, 0x00, 0x00, 0x30, 0x00, 0x00, 0x00,
  0x07, 0x00, 0x00, 0x00, 0x00, 0x00, 0x00, 0x09, 0x44, 0x00, 0x00, 0x00,
  0x4c, 0xfd, 0xff, 0xff, 0x08, 0x00, 0x00, 0x00, 0x10, 0x00, 0x00, 0x00,
  0x01, 0x00, 0x00, 0x00, 0x00, 0x00, 0x00, 0x00, 0x00, 0x00, 0x00, 0x00,
  0x01, 0x00, 0x00, 0x00, 0x0e, 0xd4, 0x3e, 0x3b, 0x19, 0x00, 0x00, 0x00,
  0x73, 0x65, 0x71, 0x75, 0x65, 0x6e, 0x74, 0x69, 0x61, 0x6c, 0x2f, 0x64,
  0x65, 0x6e, 0x73, 0x65, 0x5f, 0x32, 0x2f, 0x4d, 0x61, 0x74, 0x4d, 0x75,
  0x6c, 0x00, 0x00, 0x00, 0x02, 0x00, 0x00, 0x00, 0x14, 0x00, 0x00, 0x00,
  0x1e, 0x00, 0x00, 0x00, 0xca, 0xfd, 0xff, 0xff, 0x00, 0x00, 0x00, 0x01,
  0x14, 0x00, 0x00, 0x00, 0x34, 0x00, 0x00, 0x00, 0x06, 0x00, 0x00, 0x00,
  0x00, 0x00, 0x00, 0x02, 0x58, 0x00, 0x00, 0x00, 0xb4, 0xfd, 0xff, 0xff,
  0x08, 0x00, 0x00, 0x00, 0x14, 0x00, 0x00, 0x00, 0x01, 0x00, 0x00, 0x00,
  0x00, 0x00, 0x00, 0x00, 0x00, 0x00, 0x00, 0x00, 0x00, 0x00, 0x00, 0x00,
  0x01, 0x00, 0x00, 0x00, 0xd2, 0xd9, 0x11, 0x3c, 0x29, 0x00, 0x00, 0x00,
  0x73, 0x65, 0x71, 0x75, 0x65, 0x6e, 0x74, 0x69, 0x61, 0x6c, 0x2f, 0x64,
  0x65, 0x6e, 0x73, 0x65, 0x5f, 0x32, 0x2f, 0x42, 0x69, 0x61, 0x73, 0x41,
  0x64, 0x64, 0x2f, 0x52, 0x65, 0x61, 0x64, 0x56, 0x61, 0x72, 0x69, 0x61,
  0x62, 0x6c, 0x65, 0x4f, 0x70, 0x00, 0x00, 0x00, 0x01, 0x00, 0x00, 0x00,
  0x14, 0x00, 0x00, 0x00, 0x42, 0xfe, 0xff, 0xff, 0x00, 0x00, 0x00, 0x01,
  0x14, 0x00, 0x00, 0x00, 0x30, 0x00, 0x00, 0x00, 0x05, 0x00, 0x00, 0x00,
  0x00, 0x00, 0x00, 0x09, 0x44, 0x00, 0x00, 0x00, 0x2c, 0xfe, 0xff, 0xff,
  0x08, 0x00, 0x00, 0x00, 0x10, 0x00, 0x00, 0x00, 0x01, 0x00, 0x00, 0x00,
  0x00, 0x00, 0x00, 0x00, 0x00, 0x00, 0x00, 0x00, 0x01, 0x00, 0x00, 0x00,
  0x80, 0x9a, 0x65, 0x3b, 0x19, 0x00, 0x00, 0x00, 0x73, 0x65, 0x71, 0x75,
  0x65, 0x6e, 0x74, 0x69, 0x61, 0x6c, 0x2f, 0x64, 0x65, 0x6e, 0x73, 0x65,
  0x5f, 0x33, 0x2f, 0x4d, 0x61, 0x74, 0x4d, 0x75, 0x6c, 0x00, 0x00, 0x00,
  0x02, 0x00, 0x00, 0x00, 0x0a, 0x00, 0x00, 0x00, 0x14, 0x00, 0x00, 0x00,
  0xaa, 0xfe, 0xff, 0xff, 0x00, 0x00, 0x00, 0x01, 0x14, 0x00, 0x00, 0x00,
  0x34, 0x00, 0x00, 0x00, 0x04, 0x00, 0x00, 0x00, 0x00, 0x00, 0x00, 0x02,
  0x58, 0x00, 0x00, 0x00, 0x94, 0xfe, 0xff, 0xff, 0x08, 0x00, 0x00, 0x00,
  0x14, 0x00, 0x00, 0x00, 0x01, 0x00, 0x00, 0x00, 0x00, 0x00, 0x00, 0x00,
  0x00, 0x00, 0x00, 0x00, 0x00, 0x00, 0x00, 0x00, 0x01, 0x00, 0x00, 0x00,
  0x9d, 0x91, 0xad, 0x3b, 0x29, 0x00, 0x00, 0x00, 0x73, 0x65, 0x71, 0x75,
  0x65, 0x6e, 0x74, 0x69, 0x61, 0x6c, 0x2f, 0x64, 0x65, 0x6e, 0x73, 0x65,
  0x5f, 0x33, 0x2f, 0x42, 0x69, 0x61, 0x73, 0x41, 0x64, 0x64, 0x2f, 0x52,
  0x65, 0x61, 0x64, 0x56, 0x61, 0x72, 0x69, 0x61, 0x62, 0x6c, 0x65, 0x4f,
  0x70, 0x00, 0x00, 0x00, 0x01, 0x00, 0x00, 0x00, 0x0a, 0x00, 0x00, 0x00,
  0x22, 0xff, 0xff, 0xff, 0x00, 0x00, 0x00, 0x01, 0x14, 0x00, 0x00, 0x00,
  0x30, 0x00, 0x00, 0x00, 0x03, 0x00, 0x00, 0x00, 0x00, 0x00, 0x00, 0x09,
  0x44, 0x00, 0x00, 0x00, 0x0c, 0xff, 0xff, 0xff, 0x08, 0x00, 0x00, 0x00,
  0x10, 0x00, 0x00, 0x00, 0x01, 0x00, 0x00, 0x00, 0x00, 0x00, 0x00, 0x00,
  0x00, 0x00, 0x00, 0x00, 0x01, 0x00, 0x00, 0x00, 0x8e, 0xc9, 0x99, 0x3b,
  0x18, 0x00, 0x00, 0x00, 0x73, 0x65, 0x71, 0x75, 0x65, 0x6e, 0x74, 0x69,
  0x61, 0x6c, 0x2f, 0x79, 0x5f, 0x70, 0x72, 0x65, 0x64, 0x2f, 0x4d, 0x61,
  0x74, 0x4d, 0x75, 0x6c, 0x00, 0x00, 0x00, 0x00, 0x02, 0x00, 0x00, 0x00,
  0x03, 0x00, 0x00, 0x00, 0x0a, 0x00, 0x00, 0x00, 0x8a, 0xff, 0xff, 0xff,
  0x00, 0x00, 0x00, 0x01, 0x14, 0x00, 0x00, 0x00, 0x30, 0x00, 0x00, 0x00,
  0x02, 0x00, 0x00, 0x00, 0x00, 0x00, 0x00, 0x02, 0x54, 0x00, 0x00, 0x00,
  0x74, 0xff, 0xff, 0xff, 0x08, 0x00, 0x00, 0x00, 0x10, 0x00, 0x00, 0x00,
  0x01, 0x00, 0x00, 0x00, 0x00, 0x00, 0x00, 0x00, 0x00, 0x00, 0x00, 0x00,
  0x01, 0x00, 0x00, 0x00, 0x28, 0xa7, 0x40, 0x3b, 0x28, 0x00, 0x00, 0x00,
  0x73, 0x65, 0x71, 0x75, 0x65, 0x6e, 0x74, 0x69, 0x61, 0x6c, 0x2f, 0x79,
  0x5f, 0x70, 0x72, 0x65, 0x64, 0x2f, 0x42, 0x69, 0x61, 0x73, 0x41, 0x64,
  0x64, 0x2f, 0x52, 0x65, 0x61, 0x64, 0x56, 0x61, 0x72, 0x69, 0x61, 0x62,
  0x6c, 0x65, 0x4f, 0x70, 0x00, 0x00, 0x00, 0x00, 0x01, 0x00, 0x00, 0x00,
  0x03, 0x00, 0x00, 0x00, 0x00, 0x00, 0x16, 0x00, 0x1c, 0x00, 0x18, 0x00,
  0x17, 0x00, 0x10, 0x00, 0x0c, 0x00, 0x08, 0x00, 0x00, 0x00, 0x00, 0x00,
  0x00, 0x00, 0x07, 0x00, 0x16, 0x00, 0x00, 0x00, 0x00, 0x00, 0x00, 0x01,
  0x20, 0x00, 0x00, 0x00, 0x40, 0x00, 0x00, 0x00, 0x01, 0x00, 0x00, 0x00,
  0x00, 0x00, 0x00, 0x09, 0x4c, 0x00, 0x00, 0x00, 0x0c, 0x00, 0x0c, 0x00,
  0x00, 0x00, 0x00, 0x00, 0x08, 0x00, 0x04, 0x00, 0x0c, 0x00, 0x00, 0x00,
  0x08, 0x00, 0x00, 0x00, 0x14, 0x00, 0x00, 0x00, 0x01, 0x00, 0x00, 0x00,
  0x80, 0xff, 0xff, 0xff, 0xff, 0xff, 0xff, 0xff, 0x00, 0x00, 0x00, 0x00,
  0x01, 0x00, 0x00, 0x00, 0x4f, 0xe9, 0x3a, 0x41, 0x13, 0x00, 0x00, 0x00,
  0x73, 0x65, 0x72, 0x76, 0x69, 0x6e, 0x67, 0x5f, 0x64, 0x65, 0x66, 0x61,
  0x75, 0x6c, 0x74, 0x5f, 0x78, 0x3a, 0x30, 0x00, 0x02, 0x00, 0x00, 0x00,
  0x01, 0x00, 0x00, 0x00, 0x04, 0x00, 0x00, 0x00, 0x02, 0x00, 0x00, 0x00,
  0x24, 0x00, 0x00, 0x00, 0x04, 0x00, 0x00, 0x00, 0xf0, 0xff, 0xff, 0xff,
  0x19, 0x00, 0x00, 0x00, 0x02, 0x00, 0x00, 0x00, 0x00, 0x00, 0x00, 0x19,
  0x0c, 0x00, 0x10, 0x00, 0x0f, 0x00, 0x00, 0x00, 0x08, 0x00, 0x04, 0x00,
  0x0c, 0x00, 0x00, 0x00, 0x09, 0x00, 0x00, 0x00, 0x04, 0x00, 0x00, 0x00,
  0x00, 0x00, 0x00, 0x09
};
unsigned int tflite_learn_5_len = 6712;
#endif // _EI_CLASSIFIER_TFLITE_LEARN_5_H_
