/* Generated by Edge Impulse
 *
 * Permission is hereby granted, free of charge, to any person obtaining a copy
 * of this software and associated documentation files (the "Software"), to deal
 * in the Software without restriction, including without limitation the rights
 * to use, copy, modify, merge, publish, distribute, sublicense, and/or sell
 * copies of the Software, and to permit persons to whom the Software is
 * furnished to do so, subject to the following conditions:
 *
 * The above copyright notice and this permission notice shall be included in
 * all copies or substantial portions of the Software.
 *
 * THE SOFTWARE IS PROVIDED "AS IS", WITHOUT WARRANTY OF ANY KIND, EXPRESS OR
 * IMPLIED, INCLUDING BUT NOT LIMITED TO THE WARRANTIES OF MERCHANTABILITY,
 * FITNESS FOR A PARTICULAR PURPOSE AND NONINFRINGEMENT. IN NO EVENT SHALL THE
 * AUTHORS OR COPYRIGHT HOLDERS BE LIABLE FOR ANY CLAIM, DAMAGES OR OTHER
 * LIABILITY, WHETHER IN AN ACTION OF CONTRACT, TORT OR OTHERWISE, ARISING FROM,
 * OUT OF OR IN CONNECTION WITH THE SOFTWARE OR THE USE OR OTHER DEALINGS IN THE
 * SOFTWARE.
 */

#ifndef _EI_CLASSIFIER_TFLITE_LEARN_5_H_
#define _EI_CLASSIFIER_TFLITE_LEARN_5_H_

#define EI_CLASSIFIER_TFLITE_LEARN_5_ARENA_SIZE     3616
const size_t tflite_learn_5_arena_size = 3616;

#ifdef EI_CLASSIFIER_TFLITE_ARENA_SIZE
#if EI_CLASSIFIER_TFLITE_ARENA_SIZE < EI_CLASSIFIER_TFLITE_LEARN_5_ARENA_SIZE
#undef EI_CLASSIFIER_TFLITE_ARENA_SIZE
#define EI_CLASSIFIER_TFLITE_ARENA_SIZE EI_CLASSIFIER_TFLITE_LEARN_5_ARENA_SIZE
#endif // #if EI_CLASSIFIER_TFLITE_ARENA_SIZE < EI_CLASSIFIER_TFLITE_LEARN_5_ARENA_SIZE
#else
#define EI_CLASSIFIER_TFLITE_ARENA_SIZE EI_CLASSIFIER_TFLITE_LEARN_5_ARENA_SIZE
#endif // #ifdef EI_CLASSIFIER_TFLITE_ARENA_SIZE

#if defined __GNUC__
#define ALIGN(X) __attribute__((aligned(X)))
#elif defined _MSC_VER
#define ALIGN(X) __declspec(align(X))
#elif defined __TASKING__
#define ALIGN(X) __align(X)
#else
#define ALIGN(X)
#endif

ALIGN(16) const unsigned char tflite_learn_5[] = {
  0x20, 0x00, 0x00, 0x00, 0x54, 0x46, 0x4c, 0x33, 0x00, 0x00, 0x00, 0x00,
  0x14, 0x00, 0x20, 0x00, 0x1c, 0x00, 0x18, 0x00, 0x14, 0x00, 0x10, 0x00,
  0x0c, 0x00, 0x00, 0x00, 0x08, 0x00, 0x04, 0x00, 0x14, 0x00, 0x00, 0x00,
  0x1c, 0x00, 0x00, 0x00, 0x8c, 0x00, 0x00, 0x00, 0xe4, 0x00, 0x00, 0x00,
  0x7c, 0x0f, 0x00, 0x00, 0x8c, 0x0f, 0x00, 0x00, 0xd8, 0x19, 0x00, 0x00,
  0x03, 0x00, 0x00, 0x00, 0x01, 0x00, 0x00, 0x00, 0x10, 0x00, 0x00, 0x00,
  0x00, 0x00, 0x0a, 0x00, 0x10, 0x00, 0x0c, 0x00, 0x08, 0x00, 0x04, 0x00,
  0x0a, 0x00, 0x00, 0x00, 0x0c, 0x00, 0x00, 0x00, 0x1c, 0x00, 0x00, 0x00,
  0x3c, 0x00, 0x00, 0x00, 0x0f, 0x00, 0x00, 0x00, 0x73, 0x65, 0x72, 0x76,
  0x69, 0x6e, 0x67, 0x5f, 0x64, 0x65, 0x66, 0x61, 0x75, 0x6c, 0x74, 0x00,
  0x01, 0x00, 0x00, 0x00, 0x04, 0x00, 0x00, 0x00, 0x9c, 0xff, 0xff, 0xff,
  0x10, 0x00, 0x00, 0x00, 0x04, 0x00, 0x00, 0x00, 0x08, 0x00, 0x00, 0x00,
  0x6f, 0x75, 0x74, 0x70, 0x75, 0x74, 0x5f, 0x30, 0x00, 0x00, 0x00, 0x00,
  0x01, 0x00, 0x00, 0x00, 0x04, 0x00, 0x00, 0x00, 0x62, 0xf0, 0xff, 0xff,
  0x04, 0x00, 0x00, 0x00, 0x01, 0x00, 0x00, 0x00, 0x78, 0x00, 0x00, 0x00,
  0x02, 0x00, 0x00, 0x00, 0x34, 0x00, 0x00, 0x00, 0x04, 0x00, 0x00, 0x00,
  0xdc, 0xff, 0xff, 0xff, 0x13, 0x00, 0x00, 0x00, 0x04, 0x00, 0x00, 0x00,
  0x13, 0x00, 0x00, 0x00, 0x43, 0x4f, 0x4e, 0x56, 0x45, 0x52, 0x53, 0x49,
  0x4f, 0x4e, 0x5f, 0x4d, 0x45, 0x54, 0x41, 0x44, 0x41, 0x54, 0x41, 0x00,
  0x08, 0x00, 0x0c, 0x00, 0x08, 0x00, 0x04, 0x00, 0x08, 0x00, 0x00, 0x00,
  0x12, 0x00, 0x00, 0x00, 0x04, 0x00, 0x00, 0x00, 0x13, 0x00, 0x00, 0x00,
  0x6d, 0x69, 0x6e, 0x5f, 0x72, 0x75, 0x6e, 0x74, 0x69, 0x6d, 0x65, 0x5f,
  0x76, 0x65, 0x72, 0x73, 0x69, 0x6f, 0x6e, 0x00, 0x14, 0x00, 0x00, 0x00,
  0x94, 0x0e, 0x00, 0x00, 0x8c, 0x0e, 0x00, 0x00, 0x6c, 0x0e, 0x00, 0x00,
  0x34, 0x0e, 0x00, 0x00, 0xfc, 0x0d, 0x00, 0x00, 0x24, 0x0d, 0x00, 0x00,
  0xc4, 0x0c, 0x00, 0x00, 0x5c, 0x0a, 0x00, 0x00, 0xd4, 0x09, 0x00, 0x00,
  0xbc, 0x02, 0x00, 0x00, 0xbc, 0x01, 0x00, 0x00, 0xbc, 0x00, 0x00, 0x00,
  0xb4, 0x00, 0x00, 0x00, 0xac, 0x00, 0x00, 0x00, 0xa4, 0x00, 0x00, 0x00,
  0x9c, 0x00, 0x00, 0x00, 0x94, 0x00, 0x00, 0x00, 0x8c, 0x00, 0x00, 0x00,
  0x6c, 0x00, 0x00, 0x00, 0x04, 0x00, 0x00, 0x00, 0x22, 0xf1, 0xff, 0xff,
  0x04, 0x00, 0x00, 0x00, 0x58, 0x00, 0x00, 0x00, 0x0c, 0x00, 0x00, 0x00,
  0x08, 0x00, 0x0e, 0x00, 0x08, 0x00, 0x04, 0x00, 0x08, 0x00, 0x00, 0x00,
  0x10, 0x00, 0x00, 0x00, 0x28, 0x00, 0x00, 0x00, 0x00, 0x00, 0x06, 0x00,
  0x08, 0x00, 0x04, 0x00, 0x06, 0x00, 0x00, 0x00, 0x04, 0x00, 0x00, 0x00,
  0x01, 0x00, 0x00, 0x00, 0xeb, 0x03, 0x00, 0x00, 0x00, 0x00, 0x0a, 0x00,
  0x10, 0x00, 0x0c, 0x00, 0x08, 0x00, 0x04, 0x00, 0x0a, 0x00, 0x00, 0x00,
  0x03, 0x00, 0x00, 0x00, 0x02, 0x00, 0x00, 0x00, 0x04, 0x00, 0x00, 0x00,
  0x06, 0x00, 0x00, 0x00, 0x32, 0x2e, 0x31, 0x31, 0x2e, 0x31, 0x00, 0x00,
  0x86, 0xf1, 0xff, 0xff, 0x04, 0x00, 0x00, 0x00, 0x10, 0x00, 0x00, 0x00,
  0x31, 0x2e, 0x31, 0x34, 0x2e, 0x30, 0x00, 0x00, 0x00, 0x00, 0x00, 0x00,
  0x00, 0x00, 0x00, 0x00, 0x70, 0xf1, 0xff, 0xff, 0x74, 0xf1, 0xff, 0xff,
  0x78, 0xf1, 0xff, 0xff, 0x7c, 0xf1, 0xff, 0xff, 0x80, 0xf1, 0xff, 0xff,
  0x84, 0xf1, 0xff, 0xff, 0xba, 0xf1, 0xff, 0xff, 0x04, 0x00, 0x00, 0x00,
  0xf0, 0x00, 0x00, 0x00, 0xf6, 0x51, 0x15, 0x9f, 0x96, 0xff, 0x1d, 0x5b,
  0x38, 0xb1, 0x3b, 0xf1, 0xa5, 0x41, 0xf5, 0xa3, 0x4b, 0xa9, 0x4e, 0x33,
  0xda, 0xf4, 0x02, 0x0e, 0x35, 0xc4, 0xdc, 0x09, 0x42, 0x4e, 0x0c, 0x48,
  0x4e, 0xdb, 0xfd, 0xf5, 0xa4, 0xf9, 0x9c, 0x91, 0x61, 0x96, 0x37, 0x17,
  0xe6, 0xda, 0x64, 0xdc, 0xcd, 0xdd, 0xbe, 0x35, 0x1a, 0xfa, 0xa3, 0x1a,
  0x65, 0x1c, 0xcf, 0x21, 0xfb, 0x93, 0xed, 0x1f, 0x01, 0xf8, 0xdb, 0x9f,
  0xe4, 0x47, 0xce, 0xeb, 0xa3, 0x94, 0xb8, 0xd9, 0xf4, 0xbe, 0x17, 0x45,
  0xf1, 0x1f, 0xba, 0xfd, 0xf9, 0xe0, 0x21, 0xba, 0xee, 0x2a, 0x56, 0xa7,
  0x28, 0xe8, 0x5a, 0x48, 0x16, 0xa9, 0xe6, 0xe0, 0x58, 0xd3, 0x6a, 0x95,
  0xee, 0xd6, 0x5b, 0x02, 0x8c, 0x5d, 0x27, 0xe0, 0x69, 0xa2, 0xbf, 0x07,
  0x31, 0xc0, 0xff, 0xa2, 0x1a, 0xa9, 0x12, 0xac, 0x2a, 0xab, 0xd7, 0x5d,
  0x97, 0x43, 0x95, 0xe6, 0x81, 0x55, 0x5a, 0x0e, 0xa6, 0x06, 0x26, 0x6c,
  0x5f, 0xa3, 0x15, 0xfc, 0xb9, 0x59, 0xb0, 0xa0, 0x32, 0x42, 0x57, 0xd7,
  0xe4, 0x35, 0xf6, 0x9a, 0x53, 0xed, 0xf1, 0xa7, 0xf5, 0x28, 0x2a, 0x35,
  0x4e, 0x0c, 0x23, 0x1f, 0xa0, 0xc4, 0x69, 0x15, 0xc3, 0x35, 0x2f, 0x4e,
  0x12, 0xae, 0xcc, 0x14, 0x13, 0xa9, 0xd5, 0xd8, 0xd9, 0x94, 0xd9, 0xf8,
  0x2d, 0x26, 0xe3, 0x69, 0x30, 0x3e, 0xe7, 0x32, 0xa2, 0x41, 0xc4, 0xb4,
  0x2a, 0xd6, 0xef, 0x12, 0x48, 0x88, 0x39, 0x51, 0x01, 0xa1, 0xa7, 0x9a,
  0xce, 0x56, 0xf1, 0x20, 0xc4, 0xbe, 0x34, 0x92, 0x9d, 0x0a, 0x15, 0x18,
  0xd4, 0xe6, 0x28, 0xdd, 0x5d, 0xe7, 0x25, 0x6b, 0x37, 0x06, 0xfa, 0xd3,
  0xf9, 0xcc, 0x41, 0x4a, 0xb6, 0xf2, 0xff, 0xff, 0x04, 0x00, 0x00, 0x00,
  0xf0, 0x00, 0x00, 0x00, 0xff, 0xff, 0xff, 0xff, 0xff, 0xff, 0xff, 0xff,
  0x00, 0x00, 0x00, 0x00, 0x00, 0x00, 0x00, 0x00, 0xff, 0xff, 0xff, 0xff,
  0xff, 0xff, 0xff, 0xff, 0x00, 0x00, 0x00, 0x00, 0xfe, 0xff, 0xff, 0xff,
  0x00, 0x00, 0x00, 0x00, 0x00, 0x00, 0x00, 0x00, 0xff, 0xff, 0xff, 0xff,
  0x00, 0x00, 0x00, 0x00, 0x00, 0x00, 0x00, 0x00, 0x00, 0x00, 0x00, 0x00,
  0x00, 0x00, 0x00, 0x00, 0x00, 0x00, 0x00, 0x00, 0x00, 0x00, 0x00, 0x00,
  0xff, 0xff, 0xff, 0xff, 0x00, 0x00, 0x00, 0x00, 0xff, 0xff, 0xff, 0xff,
  0x00, 0x00, 0x00, 0x00, 0x00, 0x00, 0x00, 0x00, 0xff, 0xff, 0xff, 0xff,
  0xff, 0xff, 0xff, 0xff, 0x00, 0x00, 0x00, 0x00, 0xff, 0xff, 0xff, 0xff,
  0x00, 0x00, 0x00, 0x00, 0xff, 0xff, 0xff, 0xff, 0x00, 0x00, 0x00, 0x00,
  0x00, 0x00, 0x00, 0x00, 0x00, 0x00, 0x00, 0x00, 0x00, 0x00, 0x00, 0x00,
  0x00, 0x00, 0x00, 0x00, 0x00, 0x00, 0x00, 0x00, 0x00, 0x00, 0x00, 0x00,
  0x00, 0x00, 0x00, 0x00, 0x00, 0x00, 0x00, 0x00, 0x00, 0x00, 0x00, 0x00,
  0x00, 0x00, 0x00, 0x00, 0x00, 0x00, 0x00, 0x00, 0x01, 0x00, 0x00, 0x00,
  0xff, 0xff, 0xff, 0xff, 0x00, 0x00, 0x00, 0x00, 0xff, 0xff, 0xff, 0xff,
  0x00, 0x00, 0x00, 0x00, 0x00, 0x00, 0x00, 0x00, 0x00, 0x00, 0x00, 0x00,
  0xff, 0xff, 0xff, 0xff, 0xff, 0xff, 0xff, 0xff, 0x00, 0x00, 0x00, 0x00,
  0xff, 0xff, 0xff, 0xff, 0xfe, 0xff, 0xff, 0xff, 0x00, 0x00, 0x00, 0x00,
  0xff, 0xff, 0xff, 0xff, 0x00, 0x00, 0x00, 0x00, 0xfe, 0xff, 0xff, 0xff,
  0x00, 0x00, 0x00, 0x00, 0x00, 0x00, 0x00, 0x00, 0x00, 0x00, 0x00, 0x00,
  0xff, 0xff, 0xff, 0xff, 0xb2, 0xf3, 0xff, 0xff, 0x04, 0x00, 0x00, 0x00,
  0x08, 0x07, 0x00, 0x00, 0x23, 0x0b, 0x62, 0xd4, 0x37, 0xb9, 0xc3, 0xad,
  0xa2, 0x50, 0x3f, 0xbc, 0xe5, 0xc4, 0xeb, 0xae, 0xfd, 0xbd, 0x01, 0xda,
  0x41, 0x15, 0xdf, 0x10, 0x53, 0xad, 0xe9, 0xdd, 0x35, 0xc8, 0xdc, 0x61,
  0xa6, 0xb3, 0xaa, 0xff, 0x15, 0xc8, 0x5e, 0xc3, 0xd2, 0x60, 0x46, 0x23,
  0xa2, 0xae, 0x44, 0xf2, 0xc6, 0xf2, 0xa2, 0x24, 0xf5, 0x41, 0x4f, 0x2e,
  0x4a, 0xcb, 0x2e, 0xf9, 0xd0, 0x37, 0xcf, 0x10, 0x33, 0x4c, 0xda, 0xc9,
  0x5c, 0xc7, 0x56, 0xa8, 0xdb, 0x04, 0xf8, 0x04, 0x5a, 0x2c, 0x0f, 0x12,
  0x01, 0x2f, 0x50, 0x31, 0x4f, 0xcc, 0xec, 0x37, 0x0b, 0xdf, 0x0d, 0xd5,
  0x30, 0xb5, 0x05, 0x98, 0xf7, 0x12, 0xcf, 0x47, 0xf1, 0x04, 0xc3, 0xc8,
  0xce, 0xa0, 0x63, 0xb8, 0x5d, 0x3d, 0x26, 0xf4, 0x04, 0xf0, 0xf0, 0x4a,
  0x53, 0xe1, 0x61, 0xf8, 0xeb, 0x5a, 0xe0, 0xf6, 0xec, 0xc3, 0xaa, 0x3a,
  0x5f, 0x31, 0x0b, 0x2a, 0xe3, 0x1c, 0x5a, 0x33, 0x5a, 0xd1, 0x4c, 0xe7,
  0xaa, 0x23, 0x5e, 0x21, 0x10, 0xb9, 0xfd, 0xcc, 0x36, 0x35, 0x60, 0xc1,
  0x53, 0xda, 0xf9, 0xed, 0xef, 0xbb, 0xd2, 0xd5, 0xc6, 0xb7, 0xbf, 0xbe,
  0xa1, 0xa2, 0xae, 0x4e, 0x53, 0x3c, 0xc3, 0x56, 0x0a, 0xba, 0x43, 0x07,
  0xb1, 0xa4, 0x59, 0xd9, 0x34, 0xfb, 0xbe, 0x3f, 0xb3, 0xda, 0x5b, 0x40,
  0x14, 0x0f, 0x2f, 0x3b, 0xb5, 0xec, 0xf2, 0x36, 0xb5, 0x06, 0xba, 0x9a,
  0xc9, 0xc7, 0xed, 0x48, 0xda, 0xe7, 0xc8, 0x9f, 0x42, 0xc8, 0xd0, 0xaf,
  0xc1, 0x15, 0xe1, 0x42, 0x54, 0x3e, 0x28, 0x39, 0x9d, 0xb5, 0x5b, 0xb6,
  0xae, 0x0a, 0x4c, 0xf3, 0x3c, 0x11, 0xed, 0x3f, 0xd5, 0xd4, 0x34, 0x25,
  0xdc, 0x3f, 0xdb, 0xc3, 0xde, 0xe0, 0xd5, 0x35, 0xec, 0xad, 0x3f, 0xfb,
  0xc7, 0x2c, 0x18, 0x0e, 0xcb, 0x02, 0x61, 0xa6, 0x5b, 0xf4, 0x1b, 0x21,
  0xbd, 0x55, 0xc0, 0xc4, 0xf6, 0xc3, 0x29, 0x1b, 0xfa, 0x46, 0x57, 0xc0,
  0xf1, 0x46, 0x56, 0x32, 0xfa, 0xda, 0xbb, 0xac, 0xb3, 0x4e, 0x46, 0x3f,
  0xe8, 0xe1, 0x5c, 0xa5, 0x62, 0x49, 0xf1, 0x3d, 0xbb, 0xc8, 0xe3, 0x12,
  0x3a, 0x46, 0xaa, 0xc5, 0xb3, 0x2b, 0x00, 0xd7, 0xd8, 0xcd, 0xc5, 0x4d,
  0xff, 0x04, 0xa6, 0xa3, 0xbb, 0x5a, 0xc3, 0x47, 0xd6, 0xf7, 0x4e, 0xf4,
  0x65, 0xae, 0x28, 0x09, 0x2f, 0x7f, 0xda, 0xd0, 0xb8, 0xbc, 0x0d, 0x15,
  0x16, 0xea, 0xb2, 0x14, 0xde, 0x07, 0xe6, 0xf2, 0xb5, 0xb6, 0x3e, 0x54,
  0x32, 0xfa, 0xd6, 0x2e, 0xbf, 0xa4, 0xc4, 0x61, 0x30, 0x61, 0x30, 0x3a,
  0x25, 0x07, 0x15, 0x57, 0x4f, 0xbc, 0x0a, 0x02, 0xc2, 0xf1, 0xf2, 0xe5,
  0x3a, 0x42, 0xc7, 0xd1, 0x03, 0xa3, 0xf2, 0xf6, 0xbf, 0xec, 0xf3, 0xae,
  0x03, 0xe1, 0x5a, 0x0c, 0x10, 0x0c, 0x31, 0xf3, 0xe0, 0xd7, 0x9f, 0x5b,
  0x3e, 0xd2, 0x0f, 0x28, 0xd1, 0xb0, 0xa0, 0xbc, 0xaf, 0x4c, 0x1a, 0xad,
  0xaa, 0x18, 0x18, 0x0e, 0x63, 0xd7, 0x54, 0xa7, 0x44, 0xf6, 0x16, 0x35,
  0xfe, 0x54, 0x13, 0x5c, 0xff, 0x33, 0x3c, 0xe6, 0x2c, 0x29, 0x0c, 0x2e,
  0x25, 0x63, 0xcc, 0xbd, 0x15, 0xee, 0x24, 0xc0, 0x3b, 0xb1, 0xa6, 0xd4,
  0x58, 0x4a, 0xcf, 0x02, 0xba, 0xe8, 0x08, 0xb7, 0xbd, 0x9d, 0x12, 0xfd,
  0x58, 0x1b, 0xba, 0x36, 0xca, 0x0f, 0x2f, 0x00, 0xb7, 0x3e, 0x18, 0x05,
  0xfe, 0xdd, 0xd0, 0xd6, 0x58, 0xa0, 0x13, 0x48, 0xa5, 0xe0, 0xd0, 0x41,
  0xa6, 0xdb, 0x45, 0x55, 0x36, 0x23, 0xa2, 0x0b, 0xfc, 0x52, 0xd7, 0xab,
  0x5e, 0xa2, 0xd3, 0x09, 0x10, 0x5b, 0xe5, 0x17, 0x3e, 0x62, 0xfa, 0x4a,
  0x58, 0x13, 0x1c, 0xfe, 0x3a, 0x62, 0xd7, 0x1c, 0x39, 0xd9, 0xd4, 0x53,
  0x3a, 0xd9, 0xe6, 0xf9, 0x01, 0x2e, 0xe7, 0x01, 0xcb, 0xb0, 0x19, 0x60,
  0xff, 0xea, 0x48, 0xa9, 0x02, 0x26, 0xa3, 0xb6, 0xab, 0xac, 0xa7, 0x64,
  0xa5, 0x53, 0x02, 0x13, 0x26, 0xfe, 0xef, 0xb0, 0xc0, 0xf0, 0x02, 0x9e,
  0x24, 0x03, 0x2c, 0xe8, 0xff, 0x2e, 0x03, 0x3e, 0xf2, 0xe3, 0x0c, 0xc1,
  0x23, 0x4a, 0x9d, 0xf9, 0x36, 0x5b, 0x16, 0xb4, 0x4f, 0x51, 0x14, 0x21,
  0xba, 0xb4, 0x23, 0x56, 0x12, 0x03, 0x31, 0xc9, 0x9c, 0x2d, 0x08, 0xa5,
  0x0e, 0x46, 0x2d, 0xd1, 0xd2, 0xc4, 0xd5, 0x0f, 0x51, 0x33, 0xdd, 0x55,
  0xa6, 0x5b, 0x0d, 0xa2, 0xcc, 0x4c, 0xac, 0x14, 0x62, 0xf3, 0x15, 0x36,
  0x48, 0xcf, 0x46, 0x5f, 0xff, 0x30, 0xea, 0x1e, 0x45, 0xf7, 0xa9, 0xa0,
  0xc0, 0xe9, 0x4e, 0xf3, 0x18, 0x3b, 0xcf, 0x21, 0x3c, 0x14, 0xcc, 0x0a,
  0x1e, 0xc7, 0xa9, 0xb5, 0xa1, 0x66, 0x2a, 0x0d, 0xeb, 0x11, 0xec, 0x60,
  0xe2, 0x22, 0xa0, 0x1c, 0x53, 0x15, 0xf7, 0xce, 0xb9, 0x2f, 0x13, 0x07,
  0x04, 0xc5, 0xec, 0xa0, 0x9e, 0x2e, 0xad, 0xd3, 0x13, 0xd5, 0xe5, 0xad,
  0x23, 0xc5, 0xf0, 0x0e, 0x2d, 0x28, 0x27, 0x44, 0x25, 0xe3, 0x1f, 0x3e,
  0x03, 0x4a, 0xf2, 0xa6, 0xda, 0xc0, 0xae, 0x2f, 0xdc, 0xbe, 0x13, 0x20,
  0xdb, 0xa7, 0xdf, 0xcf, 0x35, 0xa5, 0x48, 0x35, 0x06, 0xf7, 0x23, 0xc9,
  0xcd, 0x60, 0x4b, 0xd6, 0x06, 0x19, 0x26, 0x0a, 0x3e, 0x5f, 0xcf, 0x49,
  0x0a, 0xb2, 0xe4, 0xe0, 0xad, 0xd6, 0x12, 0x1c, 0xb6, 0x49, 0xba, 0xfb,
  0xdf, 0xf9, 0x36, 0x13, 0x14, 0x48, 0x4a, 0xa3, 0x0e, 0x51, 0x00, 0x28,
  0xa8, 0xed, 0x5d, 0xba, 0xcd, 0xde, 0xab, 0xb2, 0xcc, 0xd5, 0x2d, 0xe9,
  0x07, 0xa6, 0x4c, 0x4e, 0x60, 0xb6, 0x27, 0x53, 0xec, 0x58, 0xb4, 0xd2,
  0xc5, 0xb8, 0x54, 0xcb, 0xf8, 0xaa, 0xca, 0xa5, 0xd0, 0x22, 0x39, 0xb2,
  0xd4, 0xd7, 0x19, 0x3b, 0x0c, 0xc7, 0xd8, 0x56, 0xaf, 0xe9, 0x49, 0xc3,
  0xb4, 0xf6, 0x57, 0x20, 0x3f, 0xc2, 0xe5, 0x0c, 0x0c, 0xd6, 0x51, 0xd3,
  0x47, 0xb2, 0xdd, 0xb6, 0xf6, 0x9e, 0x61, 0x1a, 0x4c, 0xd6, 0xd0, 0x56,
  0x46, 0x9c, 0x0a, 0x1d, 0xe4, 0x22, 0xe9, 0xed, 0x3f, 0x4d, 0x01, 0xf4,
  0x5b, 0x46, 0xc2, 0xa4, 0xe8, 0x20, 0x44, 0x5e, 0x52, 0x2f, 0x4d, 0x22,
  0x41, 0xd2, 0x0a, 0x9f, 0x28, 0xa8, 0x06, 0x4e, 0x1b, 0xcd, 0x32, 0x3d,
  0xa2, 0x34, 0x21, 0x25, 0xb6, 0xd1, 0xf8, 0xe6, 0x09, 0x3d, 0x41, 0x04,
  0x1a, 0xe0, 0x57, 0x52, 0x19, 0x33, 0xd7, 0xb8, 0x29, 0x9e, 0x59, 0xc2,
  0x5f, 0x07, 0xa9, 0x92, 0xc9, 0xa2, 0x4f, 0x9d, 0xce, 0x11, 0x99, 0x0d,
  0x50, 0xc6, 0x02, 0xdf, 0x51, 0xa3, 0x45, 0x19, 0x56, 0x94, 0x30, 0x45,
  0x9c, 0xf7, 0x56, 0x46, 0x3b, 0xe3, 0x3d, 0x43, 0x30, 0xe3, 0x04, 0x31,
  0x1e, 0x10, 0x3a, 0x26, 0x1d, 0x4f, 0xf2, 0xb1, 0xf0, 0xdd, 0xa3, 0x19,
  0x3c, 0x2d, 0x54, 0xe2, 0x32, 0x2b, 0xc0, 0xe8, 0xcd, 0xf1, 0xdd, 0xec,
  0x11, 0xb3, 0xd8, 0xbf, 0xc0, 0xb2, 0xf4, 0x2b, 0xc5, 0x1f, 0xa8, 0xc9,
  0xc9, 0x0a, 0x61, 0xf4, 0x54, 0x0e, 0x41, 0x38, 0xcf, 0xea, 0xfe, 0xd1,
  0x1d, 0xfa, 0x3f, 0xab, 0x1e, 0x3c, 0xe9, 0x36, 0xda, 0x2b, 0xe2, 0xfa,
  0x17, 0x9f, 0x18, 0x2b, 0xee, 0xe6, 0x1c, 0x18, 0x9f, 0x4c, 0xe0, 0xe1,
  0xce, 0x1e, 0xff, 0x42, 0x1d, 0x11, 0x9d, 0x18, 0x3b, 0xb7, 0x00, 0x5f,
  0x10, 0xf2, 0x58, 0xc0, 0x06, 0xf1, 0xa8, 0xec, 0xd8, 0xe8, 0x1e, 0x4d,
  0x38, 0xfb, 0x20, 0xe2, 0xd4, 0x38, 0x0a, 0x3a, 0xe8, 0x4c, 0xa7, 0x0e,
  0xe8, 0x9a, 0xf0, 0x5c, 0x4e, 0xf6, 0xa0, 0xcd, 0xe9, 0x4a, 0x48, 0xc9,
  0x53, 0xb2, 0xfb, 0xa7, 0x56, 0x58, 0xec, 0xbb, 0xd8, 0xed, 0xa0, 0xc6,
  0xcc, 0xae, 0xef, 0xd7, 0xa6, 0xd9, 0x35, 0x56, 0x04, 0x50, 0x1a, 0xdf,
  0x30, 0xd5, 0xc5, 0xc1, 0x4a, 0x46, 0x0b, 0x35, 0xa3, 0x2f, 0x04, 0xd9,
  0xf1, 0x52, 0x49, 0xca, 0xe7, 0xfb, 0x50, 0xb6, 0x20, 0xd0, 0x21, 0x39,
  0xfe, 0x5f, 0x32, 0x49, 0x23, 0x4b, 0xea, 0x52, 0xa5, 0xb5, 0xe4, 0x1b,
  0xb5, 0x16, 0x61, 0xa2, 0x5c, 0x9c, 0xdb, 0x3e, 0x49, 0xf8, 0x25, 0x1b,
  0x53, 0xab, 0x4a, 0x5f, 0xeb, 0xa8, 0x38, 0xab, 0xb1, 0xe5, 0xf6, 0x1b,
  0x1c, 0xb5, 0x04, 0x3e, 0xdf, 0x44, 0x2c, 0x2f, 0xa4, 0x27, 0x9c, 0xc8,
  0xd9, 0x50, 0xbe, 0xc9, 0x2f, 0xcd, 0x18, 0xa6, 0x55, 0xdc, 0xe6, 0xfc,
  0x3e, 0xc4, 0x2a, 0xdb, 0xcc, 0x44, 0xfe, 0xcc, 0xd6, 0xed, 0x43, 0xb6,
  0xc7, 0x1d, 0xbf, 0xa8, 0xe2, 0x61, 0xb2, 0xf0, 0xf0, 0x54, 0x42, 0xa1,
  0xd1, 0xd3, 0x07, 0xa4, 0x4c, 0xe7, 0xef, 0x4e, 0xec, 0x0d, 0xcf, 0x10,
  0xb0, 0xec, 0x61, 0xb6, 0xae, 0xd9, 0x4f, 0xdc, 0x62, 0xe6, 0x18, 0x5f,
  0x1e, 0xac, 0xab, 0x47, 0x61, 0xf6, 0x26, 0xc1, 0xff, 0x37, 0xf2, 0x9d,
  0x04, 0xc2, 0xcb, 0x60, 0xb8, 0x09, 0xfc, 0x10, 0x29, 0xf4, 0x4e, 0x09,
  0x3a, 0x2f, 0xae, 0xa1, 0x34, 0x1b, 0xf2, 0x29, 0xc9, 0x59, 0xff, 0x3e,
  0x02, 0x20, 0xb6, 0x01, 0x47, 0x2c, 0xa5, 0xb5, 0xfe, 0x06, 0xc9, 0xc4,
  0xde, 0x29, 0x10, 0x12, 0x3a, 0x2e, 0xee, 0xc5, 0x3e, 0x25, 0x3e, 0xf9,
  0x46, 0x22, 0xe6, 0xaa, 0xff, 0xa5, 0xc2, 0x21, 0x48, 0x42, 0x23, 0x42,
  0x38, 0xeb, 0x25, 0x3d, 0x2e, 0xd0, 0xaa, 0xd2, 0x30, 0x1e, 0x03, 0x22,
  0xc1, 0xd9, 0xc2, 0xe9, 0x3b, 0x4a, 0xa6, 0xd5, 0xa9, 0xf4, 0x22, 0xaf,
  0x3c, 0x02, 0x37, 0xe1, 0x15, 0x1e, 0x41, 0xa6, 0x0b, 0xda, 0xe5, 0x38,
  0xac, 0x3d, 0xc0, 0x5e, 0xfc, 0x2d, 0x0d, 0xd9, 0x40, 0x9c, 0xc4, 0xb5,
  0xe3, 0xd0, 0x5a, 0x40, 0xeb, 0x5e, 0x26, 0x95, 0x06, 0x94, 0x14, 0xc4,
  0xe6, 0x1e, 0x18, 0xf6, 0xfd, 0xcd, 0xdd, 0x2c, 0xf5, 0xac, 0xd4, 0x9c,
  0xde, 0x42, 0xe2, 0x3c, 0xaf, 0xbf, 0x4f, 0x9c, 0xdb, 0x63, 0xce, 0xfc,
  0x5f, 0x03, 0xa8, 0x1a, 0x53, 0xce, 0xea, 0xdd, 0x60, 0xfe, 0x34, 0xd5,
  0x22, 0x58, 0xbe, 0x04, 0xf2, 0xf0, 0xf9, 0x03, 0xe4, 0x24, 0xaa, 0xbc,
  0xf1, 0x11, 0xa1, 0x3c, 0xfe, 0x00, 0xb8, 0x0a, 0x28, 0xbc, 0x32, 0xc7,
  0x53, 0x1d, 0x9f, 0x5a, 0x51, 0x42, 0xe8, 0x2a, 0xfc, 0xd2, 0x60, 0xe3,
  0x0e, 0x32, 0x2e, 0xfe, 0x29, 0x08, 0xb2, 0x51, 0x39, 0x17, 0xd3, 0x28,
  0x0f, 0xca, 0xdd, 0xe8, 0xbf, 0x19, 0x4e, 0x60, 0x9f, 0xc5, 0x01, 0x03,
  0x0e, 0xce, 0xee, 0x1b, 0xa8, 0xe4, 0x3c, 0x5d, 0x35, 0xeb, 0x51, 0xe4,
  0x57, 0x24, 0xb7, 0xa2, 0x9f, 0x9e, 0xd4, 0xa5, 0x2e, 0x1f, 0xce, 0x08,
  0xff, 0x53, 0xdd, 0x16, 0xad, 0x3c, 0xb0, 0x31, 0x15, 0x57, 0xa9, 0xbb,
  0xeb, 0xc2, 0xae, 0x4c, 0x03, 0xd5, 0xe3, 0x2f, 0xd4, 0xf0, 0xf3, 0xf3,
  0xad, 0xbd, 0x3b, 0x20, 0x60, 0x48, 0xd4, 0xa8, 0x4f, 0xb2, 0xca, 0xef,
  0xbc, 0x62, 0x54, 0x02, 0xde, 0xf5, 0x3c, 0xde, 0xf0, 0x9d, 0xa4, 0xb6,
  0x2d, 0x31, 0xab, 0xfd, 0x3c, 0x4a, 0xf9, 0x60, 0xcd, 0x9c, 0xec, 0x43,
  0x3e, 0x36, 0x4f, 0x9e, 0xc4, 0x9b, 0x9c, 0x34, 0xeb, 0x35, 0x9e, 0xfa,
  0xf9, 0xc2, 0x05, 0x3c, 0x0f, 0xd4, 0xab, 0xb7, 0x49, 0x3d, 0x2f, 0x26,
  0xaa, 0x44, 0x3a, 0xa4, 0x27, 0xc7, 0xb0, 0x46, 0x04, 0x64, 0x1a, 0x12,
  0x0f, 0x1f, 0x22, 0xa9, 0xcf, 0xc3, 0x3f, 0x36, 0xc0, 0xba, 0xad, 0x51,
  0xd5, 0x01, 0xdf, 0x38, 0xb9, 0x0d, 0xa3, 0x06, 0xae, 0x03, 0x38, 0x0b,
  0x00, 0x00, 0x20, 0x63, 0xc8, 0x3e, 0xe4, 0x23, 0x01, 0xec, 0xf6, 0xa6,
  0xb3, 0x46, 0xe8, 0xdd, 0x57, 0x5e, 0xcf, 0x34, 0x45, 0x37, 0xa2, 0x5e,
  0xb1, 0x4c, 0xce, 0x0c, 0xbc, 0xff, 0x38, 0xe8, 0xa4, 0x4a, 0xbf, 0x24,
  0x57, 0x31, 0xe3, 0xda, 0xa5, 0x08, 0xdd, 0xd7, 0x3e, 0xff, 0xb9, 0x4c,
  0x00, 0x21, 0xd6, 0x37, 0xe7, 0xbd, 0xe0, 0xbe, 0x01, 0x38, 0x27, 0xbf,
  0xac, 0xec, 0xbb, 0xdb, 0x28, 0x4a, 0x62, 0x61, 0xaa, 0x05, 0x0a, 0xcc,
  0xe4, 0xd7, 0x59, 0xbe, 0x4d, 0x38, 0xc4, 0xc9, 0xa3, 0xbc, 0x4e, 0x35,
  0x5a, 0x15, 0x52, 0x31, 0x27, 0xb0, 0x0d, 0xa6, 0x26, 0xd3, 0x03, 0xf7,
  0xfe, 0x48, 0xff, 0x4a, 0xdc, 0x9e, 0xcd, 0xc8, 0x55, 0xba, 0x27, 0xd3,
  0xba, 0x2c, 0x02, 0xb3, 0x0e, 0xf8, 0xae, 0xcd, 0xc9, 0xf9, 0xd4, 0x30,
  0x47, 0x2b, 0x11, 0x18, 0x18, 0x0c, 0xed, 0x12, 0xe3, 0x2e, 0x13, 0x38,
  0x5d, 0xd7, 0x12, 0xb5, 0xb3, 0xd1, 0x42, 0x56, 0x1d, 0xa5, 0x01, 0x3b,
  0x1f, 0xa5, 0x26, 0xfe, 0x0d, 0x55, 0x49, 0xa3, 0x10, 0xbb, 0xfc, 0xc8,
  0xfe, 0xd2, 0x26, 0x5d, 0xe5, 0xc2, 0xd6, 0xb6, 0xd7, 0x5f, 0xa3, 0x9e,
  0x65, 0xe6, 0x25, 0x2d, 0x04, 0x10, 0x24, 0xb6, 0xbf, 0xff, 0x5d, 0x15,
  0x9e, 0x27, 0xe2, 0xec, 0xed, 0x50, 0x33, 0x2a, 0x24, 0x4d, 0x60, 0xfd,
  0xa8, 0xb2, 0xd8, 0x51, 0xe2, 0x2d, 0x90, 0x57, 0xfd, 0x09, 0xb0, 0x4a,
  0x49, 0x1c, 0xac, 0x2c, 0x24, 0xcf, 0xc8, 0x09, 0xe6, 0xa4, 0xff, 0x52,
  0xe0, 0xcc, 0x1e, 0xef, 0x2f, 0x1b, 0x3c, 0x05, 0xb4, 0x0a, 0xc5, 0xef,
  0xe3, 0xf8, 0x33, 0x06, 0xc8, 0x3a, 0x97, 0x08, 0x4f, 0x1a, 0x52, 0x0a,
  0xa8, 0xed, 0x53, 0x06, 0xc6, 0xfa, 0xff, 0xff, 0x04, 0x00, 0x00, 0x00,
  0x78, 0x00, 0x00, 0x00, 0x00, 0x00, 0x00, 0x00, 0x00, 0x00, 0x00, 0x00,
  0x00, 0x00, 0x00, 0x00, 0xff, 0xff, 0xff, 0xff, 0x00, 0x00, 0x00, 0x00,
  0xff, 0xff, 0xff, 0xff, 0x00, 0x00, 0x00, 0x00, 0x00, 0x00, 0x00, 0x00,
  0x00, 0x00, 0x00, 0x00, 0x00, 0x00, 0x00, 0x00, 0xff, 0xff, 0xff, 0xff,
  0x00, 0x00, 0x00, 0x00, 0x00, 0x00, 0x00, 0x00, 0x00, 0x00, 0x00, 0x00,
  0xfe, 0xff, 0xff, 0xff, 0x00, 0x00, 0x00, 0x00, 0x00, 0x00, 0x00, 0x00,
  0x00, 0x00, 0x00, 0x00, 0x00, 0x00, 0x00, 0x00, 0x00, 0x00, 0x00, 0x00,
  0xff, 0xff, 0xff, 0xff, 0x00, 0x00, 0x00, 0x00, 0x00, 0x00, 0x00, 0x00,
  0x00, 0x00, 0x00, 0x00, 0x00, 0x00, 0x00, 0x00, 0x00, 0x00, 0x00, 0x00,
  0xff, 0xff, 0xff, 0xff, 0x00, 0x00, 0x00, 0x00, 0xfe, 0xff, 0xff, 0xff,
  0xff, 0xff, 0xff, 0xff, 0x4a, 0xfb, 0xff, 0xff, 0x04, 0x00, 0x00, 0x00,
  0x58, 0x02, 0x00, 0x00, 0x3c, 0xad, 0x31, 0xb3, 0x22, 0x2a, 0xc2, 0xe9,
  0x0b, 0x00, 0x1c, 0x30, 0xef, 0xb2, 0x6f, 0xca, 0xa0, 0xe4, 0x4f, 0x87,
  0xf5, 0xf2, 0x51, 0x0d, 0x5e, 0x09, 0x9a, 0x5a, 0x07, 0xd0, 0x38, 0xaf,
  0x4c, 0x2e, 0xb3, 0xf9, 0x19, 0xbb, 0xbe, 0x30, 0x5a, 0xc1, 0xc6, 0xfd,
  0x15, 0xb6, 0x01, 0xa5, 0xe2, 0xb9, 0xe1, 0x56, 0x22, 0x62, 0x08, 0xf4,
  0xbd, 0xce, 0xfe, 0xdd, 0xad, 0xb0, 0x25, 0x45, 0x51, 0x91, 0x05, 0x2b,
  0x08, 0x07, 0x03, 0xab, 0xc2, 0x43, 0x41, 0xee, 0x02, 0xf4, 0x41, 0x8c,
  0xe7, 0x5a, 0x22, 0x04, 0x33, 0xbf, 0x4a, 0xc1, 0x81, 0xcc, 0x0c, 0xd3,
  0xee, 0x64, 0x42, 0xc6, 0xb7, 0xbb, 0xd7, 0x21, 0x04, 0x0b, 0xa1, 0xfc,
  0xc3, 0x5e, 0xe0, 0x48, 0xc7, 0xab, 0xe3, 0x32, 0x4e, 0xca, 0xc2, 0xf7,
  0x31, 0xb1, 0x3b, 0xdb, 0x3a, 0x9b, 0xfc, 0xe6, 0xb1, 0x58, 0xda, 0x19,
  0xb6, 0x4e, 0xb5, 0xab, 0x0a, 0xb4, 0xe1, 0xbd, 0x13, 0x62, 0x37, 0x42,
  0x47, 0xad, 0x56, 0x42, 0x3f, 0x0c, 0xa3, 0x5a, 0xa8, 0x34, 0xee, 0x0c,
  0x15, 0x42, 0xf2, 0xd8, 0xa7, 0x10, 0x1a, 0x9c, 0x51, 0x42, 0xff, 0x5a,
  0xc0, 0x62, 0xdc, 0xa8, 0xb1, 0xd5, 0xf2, 0xe9, 0xc4, 0xef, 0x1f, 0xab,
  0x1c, 0xce, 0xb5, 0x3d, 0x56, 0x5f, 0x30, 0x5f, 0x30, 0xa2, 0x32, 0xf9,
  0xe8, 0xeb, 0xf9, 0x5b, 0x4f, 0x00, 0x03, 0xe1, 0xd4, 0x4a, 0x2a, 0x22,
  0xa0, 0x09, 0x12, 0x07, 0xa8, 0x3d, 0xef, 0xce, 0x39, 0xdb, 0xed, 0x47,
  0x23, 0x07, 0xb3, 0x34, 0xa9, 0x06, 0x24, 0xd4, 0x3a, 0x04, 0xec, 0x57,
  0x22, 0xa8, 0x49, 0x9b, 0xb3, 0xc4, 0xd9, 0x35, 0xee, 0xeb, 0xe7, 0x06,
  0x31, 0x4d, 0xf6, 0xe3, 0x64, 0xee, 0xd5, 0x33, 0xb6, 0x23, 0xfb, 0x0c,
  0x14, 0xb2, 0x15, 0xbe, 0x63, 0xff, 0xf9, 0x14, 0xdf, 0x23, 0x12, 0x3e,
  0x54, 0xf4, 0x18, 0x65, 0x23, 0x24, 0xac, 0x3a, 0x34, 0x2a, 0xb2, 0x1a,
  0x3d, 0x13, 0x13, 0x56, 0x1f, 0x9e, 0xe2, 0xbc, 0xb4, 0x1d, 0xfd, 0x60,
  0xb7, 0x39, 0xca, 0x35, 0xb6, 0x0d, 0xb7, 0xba, 0xfb, 0xa0, 0x65, 0xa2,
  0x42, 0xfd, 0x18, 0x66, 0xbf, 0x34, 0x0a, 0xd7, 0x29, 0x09, 0xcc, 0xaf,
  0x18, 0x0d, 0x0a, 0x49, 0xe5, 0xec, 0xc1, 0xcb, 0xe0, 0xc6, 0x9e, 0xb5,
  0xbd, 0x0d, 0x5c, 0xa9, 0x19, 0xe9, 0x35, 0xe1, 0x3b, 0x64, 0x00, 0xe4,
  0x9b, 0xa7, 0x48, 0xa6, 0x50, 0xe8, 0x9d, 0x07, 0x5c, 0x1a, 0xae, 0xcf,
  0xca, 0x0b, 0xda, 0x10, 0xb7, 0xda, 0xb2, 0xda, 0x01, 0xa2, 0x14, 0xa1,
  0xf2, 0x54, 0xc5, 0x0e, 0xdc, 0x65, 0x5a, 0xac, 0x0a, 0xa0, 0x4a, 0x01,
  0xf4, 0x22, 0xd9, 0x39, 0x5b, 0xa8, 0xeb, 0x27, 0x34, 0x20, 0xbb, 0x0d,
  0xb8, 0xeb, 0x5e, 0xf7, 0xf3, 0xf4, 0xc5, 0x07, 0x3b, 0xc0, 0xa1, 0xdb,
  0xee, 0x1c, 0x9b, 0x2c, 0xba, 0xa8, 0x59, 0x40, 0xb8, 0x49, 0x37, 0xed,
  0xe5, 0xe9, 0x1c, 0x5c, 0x1b, 0x59, 0x04, 0xba, 0xcb, 0xff, 0x37, 0x1a,
  0xb2, 0x0c, 0xce, 0x42, 0xaa, 0x35, 0x0d, 0x95, 0xbb, 0x8d, 0x3b, 0xec,
  0x4e, 0x43, 0x15, 0x3a, 0xb1, 0x2d, 0x29, 0x60, 0x4a, 0xb5, 0xa6, 0xea,
  0x40, 0xe1, 0xcd, 0x47, 0xce, 0x3c, 0x49, 0xc7, 0x4b, 0x0f, 0x2d, 0xaf,
  0xc7, 0xb3, 0x18, 0xb4, 0xd6, 0xfa, 0xae, 0x21, 0x32, 0xb0, 0xe0, 0xea,
  0x41, 0xbd, 0x46, 0x37, 0x03, 0xe0, 0xba, 0x4d, 0xa3, 0xe1, 0x23, 0x0a,
  0x10, 0x40, 0x23, 0xdc, 0x08, 0x32, 0x06, 0xfa, 0x0a, 0x3d, 0xb9, 0x02,
  0x46, 0x3a, 0xb1, 0xb5, 0x30, 0x17, 0xfc, 0xcb, 0x22, 0x60, 0x06, 0x5a,
  0xa7, 0x1e, 0xec, 0xd8, 0xde, 0x3c, 0x33, 0x24, 0x48, 0x53, 0xb3, 0x09,
  0x1d, 0x5e, 0x36, 0x3b, 0x1f, 0xf8, 0x99, 0x4d, 0xed, 0x4d, 0x9f, 0xdc,
  0x29, 0xd5, 0x9e, 0x23, 0xdd, 0xac, 0x00, 0xb9, 0xe2, 0xd6, 0x2a, 0x34,
  0x4b, 0xcc, 0xc6, 0x51, 0x48, 0xc2, 0x27, 0x39, 0xb2, 0x07, 0x4c, 0x24,
  0xdc, 0xe0, 0xb5, 0xa4, 0x3b, 0x09, 0x5f, 0x00, 0xa9, 0x28, 0x59, 0x3b,
  0x0b, 0xbd, 0xcd, 0x5e, 0x0e, 0xd7, 0x3d, 0x02, 0x43, 0x52, 0x1d, 0xa1,
  0x54, 0x62, 0xfb, 0x31, 0xd3, 0xad, 0x35, 0x16, 0x0c, 0xa2, 0xf2, 0x4a,
  0x2d, 0x9f, 0x60, 0x0f, 0xcd, 0x83, 0x0f, 0x64, 0xa8, 0xcf, 0x53, 0x07,
  0xf7, 0x22, 0x57, 0x5c, 0xae, 0xfd, 0xff, 0xff, 0x04, 0x00, 0x00, 0x00,
  0x50, 0x00, 0x00, 0x00, 0xfe, 0xff, 0xff, 0xff, 0xff, 0xff, 0xff, 0xff,
  0xfe, 0xff, 0xff, 0xff, 0x00, 0x00, 0x00, 0x00, 0x02, 0x00, 0x00, 0x00,
  0x01, 0x00, 0x00, 0x00, 0xfe, 0xff, 0xff, 0xff, 0xf8, 0xff, 0xff, 0xff,
  0xfc, 0xff, 0xff, 0xff, 0x00, 0x00, 0x00, 0x00, 0x00, 0x00, 0x00, 0x00,
  0x03, 0x00, 0x00, 0x00, 0x00, 0x00, 0x00, 0x00, 0x00, 0x00, 0x00, 0x00,
  0xfb, 0xff, 0xff, 0xff, 0xfd, 0xff, 0xff, 0xff, 0x02, 0x00, 0x00, 0x00,
  0xf4, 0xff, 0xff, 0xff, 0xfd, 0xff, 0xff, 0xff, 0xfb, 0xff, 0xff, 0xff,
  0x0a, 0xfe, 0xff, 0xff, 0x04, 0x00, 0x00, 0x00, 0xc8, 0x00, 0x00, 0x00,
  0xc0, 0x4e, 0x40, 0xc2, 0x7f, 0x2b, 0xb3, 0xac, 0xae, 0x9f, 0x5a, 0xaf,
  0x9d, 0xf0, 0x55, 0x46, 0xf4, 0x49, 0xb1, 0x9c, 0xb9, 0x40, 0xec, 0x08,
  0x1c, 0x18, 0xd7, 0x4e, 0xf8, 0xe7, 0x53, 0xa6, 0x37, 0x37, 0x05, 0xaa,
  0x9e, 0x34, 0x30, 0xcd, 0xb6, 0x46, 0xfa, 0xd8, 0x20, 0xb7, 0x3a, 0xaa,
  0xc4, 0x3b, 0xea, 0x40, 0x4f, 0x1d, 0xe5, 0xe9, 0x17, 0x22, 0xa7, 0x58,
  0x8e, 0xe2, 0x19, 0x0c, 0xd9, 0x4a, 0x38, 0x41, 0x4e, 0x27, 0xfc, 0x69,
  0xde, 0x12, 0xc0, 0x45, 0x0e, 0xee, 0xe4, 0x07, 0xbe, 0xab, 0x3d, 0xfa,
  0x49, 0x62, 0xba, 0xfa, 0x30, 0xc1, 0x2d, 0xa3, 0xf7, 0xf0, 0xe3, 0xc7,
  0xb2, 0xb1, 0xf3, 0xb8, 0x9f, 0xe4, 0xb3, 0x15, 0x29, 0xcb, 0xaa, 0xa7,
  0xe1, 0x3f, 0x4e, 0xab, 0x9e, 0x43, 0x0a, 0xda, 0xdb, 0x4f, 0x04, 0xae,
  0xb6, 0x53, 0x16, 0x44, 0x4a, 0xa7, 0x41, 0x31, 0x14, 0x28, 0xac, 0x9e,
  0xb1, 0x60, 0x4a, 0xa7, 0x47, 0xbf, 0x42, 0x15, 0xaf, 0xd8, 0x26, 0xff,
  0xf6, 0xdb, 0x10, 0xcc, 0xd9, 0xa0, 0x52, 0xff, 0x30, 0xe0, 0x4e, 0x0c,
  0xfe, 0x23, 0x1d, 0xac, 0xa2, 0x9c, 0x3d, 0xca, 0xec, 0xa3, 0x23, 0xed,
  0xce, 0x48, 0x5f, 0x03, 0x42, 0xdb, 0xe2, 0x09, 0xd3, 0xff, 0xde, 0xe7,
  0xf5, 0xd1, 0xc7, 0x4e, 0x4f, 0xfd, 0x0e, 0x2b, 0x2d, 0xb7, 0x9d, 0xba,
  0x0a, 0xad, 0xd5, 0x1c, 0xfa, 0x28, 0x2e, 0x14, 0xde, 0xfe, 0xff, 0xff,
  0x04, 0x00, 0x00, 0x00, 0x28, 0x00, 0x00, 0x00, 0x2a, 0x00, 0x00, 0x00,
  0xec, 0xff, 0xff, 0xff, 0x01, 0x00, 0x00, 0x00, 0x35, 0x00, 0x00, 0x00,
  0xd2, 0xff, 0xff, 0xff, 0xf6, 0xff, 0xff, 0xff, 0xf2, 0xff, 0xff, 0xff,
  0xf5, 0xff, 0xff, 0xff, 0xba, 0xff, 0xff, 0xff, 0xe6, 0xff, 0xff, 0xff,
  0x12, 0xff, 0xff, 0xff, 0x04, 0x00, 0x00, 0x00, 0x28, 0x00, 0x00, 0x00,
  0xec, 0x60, 0x2f, 0x86, 0x99, 0x72, 0x60, 0xf7, 0x61, 0x0d, 0x81, 0x36,
  0xc5, 0x3f, 0xeb, 0xf3, 0x8e, 0xc0, 0xba, 0x8c, 0xa2, 0xa5, 0xe4, 0xc6,
  0x93, 0x1d, 0xef, 0x0d, 0xe0, 0x5c, 0xd8, 0xc7, 0x2e, 0x14, 0x9d, 0x40,
  0x3b, 0x7c, 0x9a, 0xa7, 0x46, 0xff, 0xff, 0xff, 0x04, 0x00, 0x00, 0x00,
  0x10, 0x00, 0x00, 0x00, 0x8c, 0xff, 0xff, 0xff, 0xab, 0xff, 0xff, 0xff,
  0x45, 0x00, 0x00, 0x00, 0x5b, 0x00, 0x00, 0x00, 0x30, 0xff, 0xff, 0xff,
  0x34, 0xff, 0xff, 0xff, 0x0f, 0x00, 0x00, 0x00, 0x4d, 0x4c, 0x49, 0x52,
  0x20, 0x43, 0x6f, 0x6e, 0x76, 0x65, 0x72, 0x74, 0x65, 0x64, 0x2e, 0x00,
  0x01, 0x00, 0x00, 0x00, 0x14, 0x00, 0x00, 0x00, 0x00, 0x00, 0x0e, 0x00,
  0x18, 0x00, 0x14, 0x00, 0x10, 0x00, 0x0c, 0x00, 0x08, 0x00, 0x04, 0x00,
  0x0e, 0x00, 0x00, 0x00, 0x14, 0x00, 0x00, 0x00, 0x1c, 0x00, 0x00, 0x00,
  0x98, 0x01, 0x00, 0x00, 0x9c, 0x01, 0x00, 0x00, 0xa0, 0x01, 0x00, 0x00,
  0x04, 0x00, 0x00, 0x00, 0x6d, 0x61, 0x69, 0x6e, 0x00, 0x00, 0x00, 0x00,
  0x06, 0x00, 0x00, 0x00, 0x40, 0x01, 0x00, 0x00, 0xf8, 0x00, 0x00, 0x00,
  0xc0, 0x00, 0x00, 0x00, 0x88, 0x00, 0x00, 0x00, 0x50, 0x00, 0x00, 0x00,
  0x14, 0x00, 0x00, 0x00, 0x00, 0x00, 0x0e, 0x00, 0x1a, 0x00, 0x14, 0x00,
  0x10, 0x00, 0x0c, 0x00, 0x0b, 0x00, 0x04, 0x00, 0x0e, 0x00, 0x00, 0x00,
  0x1c, 0x00, 0x00, 0x00, 0x00, 0x00, 0x00, 0x09, 0x1c, 0x00, 0x00, 0x00,
  0x20, 0x00, 0x00, 0x00, 0x01, 0x00, 0x00, 0x00, 0x00, 0x00, 0x06, 0x00,
  0x08, 0x00, 0x04, 0x00, 0x06, 0x00, 0x00, 0x00, 0x00, 0x00, 0x80, 0x3f,
  0x01, 0x00, 0x00, 0x00, 0x10, 0x00, 0x00, 0x00, 0x01, 0x00, 0x00, 0x00,
  0x0f, 0x00, 0x00, 0x00, 0x2e, 0xff, 0xff, 0xff, 0x14, 0x00, 0x00, 0x00,
  0x00, 0x00, 0x00, 0x08, 0x10, 0x00, 0x00, 0x00, 0x14, 0x00, 0x00, 0x00,
  0x04, 0x00, 0x04, 0x00, 0x04, 0x00, 0x00, 0x00, 0x01, 0x00, 0x00, 0x00,
  0x0f, 0x00, 0x00, 0x00, 0x03, 0x00, 0x00, 0x00, 0x0e, 0x00, 0x00, 0x00,
  0x02, 0x00, 0x00, 0x00, 0x01, 0x00, 0x00, 0x00, 0x62, 0xff, 0xff, 0xff,
  0x10, 0x00, 0x00, 0x00, 0x00, 0x00, 0x00, 0x08, 0x10, 0x00, 0x00, 0x00,
  0x14, 0x00, 0x00, 0x00, 0x52, 0xff, 0xff, 0xff, 0x00, 0x00, 0x00, 0x01,
  0x01, 0x00, 0x00, 0x00, 0x0e, 0x00, 0x00, 0x00, 0x03, 0x00, 0x00, 0x00,
  0x0d, 0x00, 0x00, 0x00, 0x04, 0x00, 0x00, 0x00, 0x03, 0x00, 0x00, 0x00,
  0x96, 0xff, 0xff, 0xff, 0x10, 0x00, 0x00, 0x00, 0x00, 0x00, 0x00, 0x08,
  0x10, 0x00, 0x00, 0x00, 0x14, 0x00, 0x00, 0x00, 0x86, 0xff, 0xff, 0xff,
  0x00, 0x00, 0x00, 0x01, 0x01, 0x00, 0x00, 0x00, 0x0d, 0x00, 0x00, 0x00,
  0x03, 0x00, 0x00, 0x00, 0x0c, 0x00, 0x00, 0x00, 0x06, 0x00, 0x00, 0x00,
  0x05, 0x00, 0x00, 0x00, 0xca, 0xff, 0xff, 0xff, 0x10, 0x00, 0x00, 0x00,
  0x00, 0x00, 0x00, 0x08, 0x10, 0x00, 0x00, 0x00, 0x14, 0x00, 0x00, 0x00,
  0xba, 0xff, 0xff, 0xff, 0x00, 0x00, 0x00, 0x01, 0x01, 0x00, 0x00, 0x00,
  0x0c, 0x00, 0x00, 0x00, 0x03, 0x00, 0x00, 0x00, 0x0b, 0x00, 0x00, 0x00,
  0x08, 0x00, 0x00, 0x00, 0x07, 0x00, 0x00, 0x00, 0x00, 0x00, 0x0e, 0x00,
  0x16, 0x00, 0x00, 0x00, 0x10, 0x00, 0x0c, 0x00, 0x0b, 0x00, 0x04, 0x00,
  0x0e, 0x00, 0x00, 0x00, 0x18, 0x00, 0x00, 0x00, 0x00, 0x00, 0x00, 0x08,
  0x18, 0x00, 0x00, 0x00, 0x1c, 0x00, 0x00, 0x00, 0x00, 0x00, 0x06, 0x00,
  0x08, 0x00, 0x07, 0x00, 0x06, 0x00, 0x00, 0x00, 0x00, 0x00, 0x00, 0x01,
  0x01, 0x00, 0x00, 0x00, 0x0b, 0x00, 0x00, 0x00, 0x03, 0x00, 0x00, 0x00,
  0x00, 0x00, 0x00, 0x00, 0x0a, 0x00, 0x00, 0x00, 0x09, 0x00, 0x00, 0x00,
  0x01, 0x00, 0x00, 0x00, 0x10, 0x00, 0x00, 0x00, 0x01, 0x00, 0x00, 0x00,
  0x00, 0x00, 0x00, 0x00, 0x11, 0x00, 0x00, 0x00, 0x10, 0x08, 0x00, 0x00,
  0x80, 0x07, 0x00, 0x00, 0x14, 0x07, 0x00, 0x00, 0x98, 0x06, 0x00, 0x00,
  0x2c, 0x06, 0x00, 0x00, 0xb0, 0x05, 0x00, 0x00, 0x44, 0x05, 0x00, 0x00,
  0xc8, 0x04, 0x00, 0x00, 0x5c, 0x04, 0x00, 0x00, 0xe8, 0x03, 0x00, 0x00,
  0x7c, 0x03, 0x00, 0x00, 0xe0, 0x02, 0x00, 0x00, 0x3c, 0x02, 0x00, 0x00,
  0x98, 0x01, 0x00, 0x00, 0xf4, 0x00, 0x00, 0x00, 0x70, 0x00, 0x00, 0x00,
  0x04, 0x00, 0x00, 0x00, 0x4a, 0xf8, 0xff, 0xff, 0x00, 0x00, 0x00, 0x01,
  0x14, 0x00, 0x00, 0x00, 0x30, 0x00, 0x00, 0x00, 0x11, 0x00, 0x00, 0x00,
  0x00, 0x00, 0x00, 0x09, 0x44, 0x00, 0x00, 0x00, 0x34, 0xf8, 0xff, 0xff,
  0x08, 0x00, 0x00, 0x00, 0x10, 0x00, 0x00, 0x00, 0x01, 0x00, 0x00, 0x00,
  0x80, 0xff, 0xff, 0xff, 0xff, 0xff, 0xff, 0xff, 0x01, 0x00, 0x00, 0x00,
  0x00, 0x00, 0x80, 0x3b, 0x19, 0x00, 0x00, 0x00, 0x53, 0x74, 0x61, 0x74,
  0x65, 0x66, 0x75, 0x6c, 0x50, 0x61, 0x72, 0x74, 0x69, 0x74, 0x69, 0x6f,
  0x6e, 0x65, 0x64, 0x43, 0x61, 0x6c, 0x6c, 0x3a, 0x30, 0x00, 0x00, 0x00,
  0x02, 0x00, 0x00, 0x00, 0x01, 0x00, 0x00, 0x00, 0x04, 0x00, 0x00, 0x00,
  0xb2, 0xf8, 0xff, 0xff, 0x00, 0x00, 0x00, 0x01, 0x14, 0x00, 0x00, 0x00,
  0x30, 0x00, 0x00, 0x00, 0x10, 0x00, 0x00, 0x00, 0x00, 0x00, 0x00, 0x09,
  0x5c, 0x00, 0x00, 0x00, 0x9c, 0xf8, 0xff, 0xff, 0x08, 0x00, 0x00, 0x00,
  0x10, 0x00, 0x00, 0x00, 0x01, 0x00, 0x00, 0x00, 0x30, 0x00, 0x00, 0x00,
  0x00, 0x00, 0x00, 0x00, 0x01, 0x00, 0x00, 0x00, 0xce, 0x81, 0xea, 0x3e,
  0x32, 0x00, 0x00, 0x00, 0x73, 0x65, 0x71, 0x75, 0x65, 0x6e, 0x74, 0x69,
  0x61, 0x6c, 0x2f, 0x79, 0x5f, 0x70, 0x72, 0x65, 0x64, 0x2f, 0x4d, 0x61,
  0x74, 0x4d, 0x75, 0x6c, 0x3b, 0x73, 0x65, 0x71, 0x75, 0x65, 0x6e, 0x74,
  0x69, 0x61, 0x6c, 0x2f, 0x79, 0x5f, 0x70, 0x72, 0x65, 0x64, 0x2f, 0x42,
  0x69, 0x61, 0x73, 0x41, 0x64, 0x64, 0x00, 0x00, 0x02, 0x00, 0x00, 0x00,
  0x01, 0x00, 0x00, 0x00, 0x04, 0x00, 0x00, 0x00, 0x32, 0xf9, 0xff, 0xff,
  0x00, 0x00, 0x00, 0x01, 0x14, 0x00, 0x00, 0x00, 0x34, 0x00, 0x00, 0x00,
  0x0f, 0x00, 0x00, 0x00, 0x00, 0x00, 0x00, 0x09, 0x7c, 0x00, 0x00, 0x00,
  0x1c, 0xf9, 0xff, 0xff, 0x08, 0x00, 0x00, 0x00, 0x14, 0x00, 0x00, 0x00,
  0x01, 0x00, 0x00, 0x00, 0x80, 0xff, 0xff, 0xff, 0xff, 0xff, 0xff, 0xff,
  0x00, 0x00, 0x00, 0x00, 0x01, 0x00, 0x00, 0x00, 0xa6, 0x93, 0xf9, 0x3e,
  0x4c, 0x00, 0x00, 0x00, 0x73, 0x65, 0x71, 0x75, 0x65, 0x6e, 0x74, 0x69,
  0x61, 0x6c, 0x2f, 0x64, 0x65, 0x6e, 0x73, 0x65, 0x5f, 0x33, 0x2f, 0x4d,
  0x61, 0x74, 0x4d, 0x75, 0x6c, 0x3b, 0x73, 0x65, 0x71, 0x75, 0x65, 0x6e,
  0x74, 0x69, 0x61, 0x6c, 0x2f, 0x64, 0x65, 0x6e, 0x73, 0x65, 0x5f, 0x33,
  0x2f, 0x52, 0x65, 0x6c, 0x75, 0x3b, 0x73, 0x65, 0x71, 0x75, 0x65, 0x6e,
  0x74, 0x69, 0x61, 0x6c, 0x2f, 0x64, 0x65, 0x6e, 0x73, 0x65, 0x5f, 0x33,
  0x2f, 0x42, 0x69, 0x61, 0x73, 0x41, 0x64, 0x64, 0x00, 0x00, 0x00, 0x00,
  0x02, 0x00, 0x00, 0x00, 0x01, 0x00, 0x00, 0x00, 0x0a, 0x00, 0x00, 0x00,
  0xd2, 0xf9, 0xff, 0xff, 0x00, 0x00, 0x00, 0x01, 0x14, 0x00, 0x00, 0x00,
  0x34, 0x00, 0x00, 0x00, 0x0e, 0x00, 0x00, 0x00, 0x00, 0x00, 0x00, 0x09,
  0x7c, 0x00, 0x00, 0x00, 0xbc, 0xf9, 0xff, 0xff, 0x08, 0x00, 0x00, 0x00,
  0x14, 0x00, 0x00, 0x00, 0x01, 0x00, 0x00, 0x00, 0x80, 0xff, 0xff, 0xff,
  0xff, 0xff, 0xff, 0xff, 0x00, 0x00, 0x00, 0x00, 0x01, 0x00, 0x00, 0x00,
  0xe8, 0x64, 0x17, 0x3f, 0x4c, 0x00, 0x00, 0x00, 0x73, 0x65, 0x71, 0x75,
  0x65, 0x6e, 0x74, 0x69, 0x61, 0x6c, 0x2f, 0x64, 0x65, 0x6e, 0x73, 0x65,
  0x5f, 0x32, 0x2f, 0x4d, 0x61, 0x74, 0x4d, 0x75, 0x6c, 0x3b, 0x73, 0x65,
  0x71, 0x75, 0x65, 0x6e, 0x74, 0x69, 0x61, 0x6c, 0x2f, 0x64, 0x65, 0x6e,
  0x73, 0x65, 0x5f, 0x32, 0x2f, 0x52, 0x65, 0x6c, 0x75, 0x3b, 0x73, 0x65,
  0x71, 0x75, 0x65, 0x6e, 0x74, 0x69, 0x61, 0x6c, 0x2f, 0x64, 0x65, 0x6e,
  0x73, 0x65, 0x5f, 0x32, 0x2f, 0x42, 0x69, 0x61, 0x73, 0x41, 0x64, 0x64,
  0x00, 0x00, 0x00, 0x00, 0x02, 0x00, 0x00, 0x00, 0x01, 0x00, 0x00, 0x00,
  0x14, 0x00, 0x00, 0x00, 0x72, 0xfa, 0xff, 0xff, 0x00, 0x00, 0x00, 0x01,
  0x14, 0x00, 0x00, 0x00, 0x34, 0x00, 0x00, 0x00, 0x0d, 0x00, 0x00, 0x00,
  0x00, 0x00, 0x00, 0x09, 0x7c, 0x00, 0x00, 0x00, 0x5c, 0xfa, 0xff, 0xff,
  0x08, 0x00, 0x00, 0x00, 0x14, 0x00, 0x00, 0x00, 0x01, 0x00, 0x00, 0x00,
  0x80, 0xff, 0xff, 0xff, 0xff, 0xff, 0xff, 0xff, 0x00, 0x00, 0x00, 0x00,
  0x01, 0x00, 0x00, 0x00, 0xa9, 0xf8, 0x2d, 0x40, 0x4c, 0x00, 0x00, 0x00,
  0x73, 0x65, 0x71, 0x75, 0x65, 0x6e, 0x74, 0x69, 0x61, 0x6c, 0x2f, 0x64,
  0x65, 0x6e, 0x73, 0x65, 0x5f, 0x31, 0x2f, 0x4d, 0x61, 0x74, 0x4d, 0x75,
  0x6c, 0x3b, 0x73, 0x65, 0x71, 0x75, 0x65, 0x6e, 0x74, 0x69, 0x61, 0x6c,
  0x2f, 0x64, 0x65, 0x6e, 0x73, 0x65, 0x5f, 0x31, 0x2f, 0x52, 0x65, 0x6c,
  0x75, 0x3b, 0x73, 0x65, 0x71, 0x75, 0x65, 0x6e, 0x74, 0x69, 0x61, 0x6c,
  0x2f, 0x64, 0x65, 0x6e, 0x73, 0x65, 0x5f, 0x31, 0x2f, 0x42, 0x69, 0x61,
  0x73, 0x41, 0x64, 0x64, 0x00, 0x00, 0x00, 0x00, 0x02, 0x00, 0x00, 0x00,
  0x01, 0x00, 0x00, 0x00, 0x1e, 0x00, 0x00, 0x00, 0x12, 0xfb, 0xff, 0xff,
  0x00, 0x00, 0x00, 0x01, 0x14, 0x00, 0x00, 0x00, 0x34, 0x00, 0x00, 0x00,
  0x0c, 0x00, 0x00, 0x00, 0x00, 0x00, 0x00, 0x09, 0x74, 0x00, 0x00, 0x00,
  0xfc, 0xfa, 0xff, 0xff, 0x08, 0x00, 0x00, 0x00, 0x14, 0x00, 0x00, 0x00,
  0x01, 0x00, 0x00, 0x00, 0x80, 0xff, 0xff, 0xff, 0xff, 0xff, 0xff, 0xff,
  0x00, 0x00, 0x00, 0x00, 0x01, 0x00, 0x00, 0x00, 0x41, 0xfd, 0xec, 0x40,
  0x46, 0x00, 0x00, 0x00, 0x73, 0x65, 0x71, 0x75, 0x65, 0x6e, 0x74, 0x69,
  0x61, 0x6c, 0x2f, 0x64, 0x65, 0x6e, 0x73, 0x65, 0x2f, 0x4d, 0x61, 0x74,
  0x4d, 0x75, 0x6c, 0x3b, 0x73, 0x65, 0x71, 0x75, 0x65, 0x6e, 0x74, 0x69,
  0x61, 0x6c, 0x2f, 0x64, 0x65, 0x6e, 0x73, 0x65, 0x2f, 0x52, 0x65, 0x6c,
  0x75, 0x3b, 0x73, 0x65, 0x71, 0x75, 0x65, 0x6e, 0x74, 0x69, 0x61, 0x6c,
  0x2f, 0x64, 0x65, 0x6e, 0x73, 0x65, 0x2f, 0x42, 0x69, 0x61, 0x73, 0x41,
  0x64, 0x64, 0x00, 0x00, 0x02, 0x00, 0x00, 0x00, 0x01, 0x00, 0x00, 0x00,
  0x3c, 0x00, 0x00, 0x00, 0xaa, 0xfb, 0xff, 0xff, 0x00, 0x00, 0x00, 0x01,
  0x14, 0x00, 0x00, 0x00, 0x34, 0x00, 0x00, 0x00, 0x0b, 0x00, 0x00, 0x00,
  0x00, 0x00, 0x00, 0x09, 0x44, 0x00, 0x00, 0x00, 0x94, 0xfb, 0xff, 0xff,
  0x08, 0x00, 0x00, 0x00, 0x14, 0x00, 0x00, 0x00, 0x01, 0x00, 0x00, 0x00,
  0x00, 0x00, 0x00, 0x00, 0x00, 0x00, 0x00, 0x00, 0x00, 0x00, 0x00, 0x00,
  0x01, 0x00, 0x00, 0x00, 0x72, 0xa9, 0x34, 0x3b, 0x17, 0x00, 0x00, 0x00,
  0x73, 0x65, 0x71, 0x75, 0x65, 0x6e, 0x74, 0x69, 0x61, 0x6c, 0x2f, 0x64,
  0x65, 0x6e, 0x73, 0x65, 0x2f, 0x4d, 0x61, 0x74, 0x4d, 0x75, 0x6c, 0x00,
  0x02, 0x00, 0x00, 0x00, 0x3c, 0x00, 0x00, 0x00, 0x04, 0x00, 0x00, 0x00,
  0x12, 0xfc, 0xff, 0xff, 0x00, 0x00, 0x00, 0x01, 0x14, 0x00, 0x00, 0x00,
  0x30, 0x00, 0x00, 0x00, 0x0a, 0x00, 0x00, 0x00, 0x00, 0x00, 0x00, 0x02,
  0x50, 0x00, 0x00, 0x00, 0xfc, 0xfb, 0xff, 0xff, 0x08, 0x00, 0x00, 0x00,
  0x10, 0x00, 0x00, 0x00, 0x01, 0x00, 0x00, 0x00, 0x00, 0x00, 0x00, 0x00,
  0x00, 0x00, 0x00, 0x00, 0x01, 0x00, 0x00, 0x00, 0xd4, 0xe7, 0x13, 0x3d,
  0x27, 0x00, 0x00, 0x00, 0x73, 0x65, 0x71, 0x75, 0x65, 0x6e, 0x74, 0x69,
  0x61, 0x6c, 0x2f, 0x64, 0x65, 0x6e, 0x73, 0x65, 0x2f, 0x42, 0x69, 0x61,
  0x73, 0x41, 0x64, 0x64, 0x2f, 0x52, 0x65, 0x61, 0x64, 0x56, 0x61, 0x72,
  0x69, 0x61, 0x62, 0x6c, 0x65, 0x4f, 0x70, 0x00, 0x01, 0x00, 0x00, 0x00,
  0x3c, 0x00, 0x00, 0x00, 0x82, 0xfc, 0xff, 0xff, 0x00, 0x00, 0x00, 0x01,
  0x14, 0x00, 0x00, 0x00, 0x30, 0x00, 0x00, 0x00, 0x09, 0x00, 0x00, 0x00,
  0x00, 0x00, 0x00, 0x09, 0x44, 0x00, 0x00, 0x00, 0x6c, 0xfc, 0xff, 0xff,
  0x08, 0x00, 0x00, 0x00, 0x10, 0x00, 0x00, 0x00, 0x01, 0x00, 0x00, 0x00,
  0x00, 0x00, 0x00, 0x00, 0x00, 0x00, 0x00, 0x00, 0x01, 0x00, 0x00, 0x00,
  0x89, 0xd1, 0x27, 0x3b, 0x19, 0x00, 0x00, 0x00, 0x73, 0x65, 0x71, 0x75,
  0x65, 0x6e, 0x74, 0x69, 0x61, 0x6c, 0x2f, 0x64, 0x65, 0x6e, 0x73, 0x65,
  0x5f, 0x31, 0x2f, 0x4d, 0x61, 0x74, 0x4d, 0x75, 0x6c, 0x00, 0x00, 0x00,
  0x02, 0x00, 0x00, 0x00, 0x1e, 0x00, 0x00, 0x00, 0x3c, 0x00, 0x00, 0x00,
  0xea, 0xfc, 0xff, 0xff, 0x00, 0x00, 0x00, 0x01, 0x14, 0x00, 0x00, 0x00,
  0x34, 0x00, 0x00, 0x00, 0x08, 0x00, 0x00, 0x00, 0x00, 0x00, 0x00, 0x02,
  0x58, 0x00, 0x00, 0x00, 0xd4, 0xfc, 0xff, 0xff, 0x08, 0x00, 0x00, 0x00,
  0x14, 0x00, 0x00, 0x00, 0x01, 0x00, 0x00, 0x00, 0x00, 0x00, 0x00, 0x00,
  0x00, 0x00, 0x00, 0x00, 0x00, 0x00, 0x00, 0x00, 0x01, 0x00, 0x00, 0x00,
  0x2f, 0x5b, 0x9b, 0x3c, 0x29, 0x00, 0x00, 0x00, 0x73, 0x65, 0x71, 0x75,
  0x65, 0x6e, 0x74, 0x69, 0x61, 0x6c, 0x2f, 0x64, 0x65, 0x6e, 0x73, 0x65,
  0x5f, 0x31, 0x2f, 0x42, 0x69, 0x61, 0x73, 0x41, 0x64, 0x64, 0x2f, 0x52,
  0x65, 0x61, 0x64, 0x56, 0x61, 0x72, 0x69, 0x61, 0x62, 0x6c, 0x65, 0x4f,
  0x70, 0x00, 0x00, 0x00, 0x01, 0x00, 0x00, 0x00, 0x1e, 0x00, 0x00, 0x00,
  0x62, 0xfd, 0xff, 0xff, 0x00, 0x00, 0x00, 0x01, 0x14, 0x00, 0x00, 0x00,
  0x30, 0x00, 0x00, 0x00, 0x07, 0x00, 0x00, 0x00, 0x00, 0x00, 0x00, 0x09,
  0x44, 0x00, 0x00, 0x00, 0x4c, 0xfd, 0xff, 0xff, 0x08, 0x00, 0x00, 0x00,
  0x10, 0x00, 0x00, 0x00, 0x01, 0x00, 0x00, 0x00, 0x00, 0x00, 0x00, 0x00,
  0x00, 0x00, 0x00, 0x00, 0x01, 0x00, 0x00, 0x00, 0x7b, 0x04, 0x5d, 0x3b,
  0x19, 0x00, 0x00, 0x00, 0x73, 0x65, 0x71, 0x75, 0x65, 0x6e, 0x74, 0x69,
  0x61, 0x6c, 0x2f, 0x64, 0x65, 0x6e, 0x73, 0x65, 0x5f, 0x32, 0x2f, 0x4d,
  0x61, 0x74, 0x4d, 0x75, 0x6c, 0x00, 0x00, 0x00, 0x02, 0x00, 0x00, 0x00,
  0x14, 0x00, 0x00, 0x00, 0x1e, 0x00, 0x00, 0x00, 0xca, 0xfd, 0xff, 0xff,
  0x00, 0x00, 0x00, 0x01, 0x14, 0x00, 0x00, 0x00, 0x34, 0x00, 0x00, 0x00,
  0x06, 0x00, 0x00, 0x00, 0x00, 0x00, 0x00, 0x02, 0x58, 0x00, 0x00, 0x00,
  0xb4, 0xfd, 0xff, 0xff, 0x08, 0x00, 0x00, 0x00, 0x14, 0x00, 0x00, 0x00,
  0x01, 0x00, 0x00, 0x00, 0x00, 0x00, 0x00, 0x00, 0x00, 0x00, 0x00, 0x00,
  0x00, 0x00, 0x00, 0x00, 0x01, 0x00, 0x00, 0x00, 0xb5, 0x32, 0x16, 0x3c,
  0x29, 0x00, 0x00, 0x00, 0x73, 0x65, 0x71, 0x75, 0x65, 0x6e, 0x74, 0x69,
  0x61, 0x6c, 0x2f, 0x64, 0x65, 0x6e, 0x73, 0x65, 0x5f, 0x32, 0x2f, 0x42,
  0x69, 0x61, 0x73, 0x41, 0x64, 0x64, 0x2f, 0x52, 0x65, 0x61, 0x64, 0x56,
  0x61, 0x72, 0x69, 0x61, 0x62, 0x6c, 0x65, 0x4f, 0x70, 0x00, 0x00, 0x00,
  0x01, 0x00, 0x00, 0x00, 0x14, 0x00, 0x00, 0x00, 0x42, 0xfe, 0xff, 0xff,
  0x00, 0x00, 0x00, 0x01, 0x14, 0x00, 0x00, 0x00, 0x30, 0x00, 0x00, 0x00,
  0x05, 0x00, 0x00, 0x00, 0x00, 0x00, 0x00, 0x09, 0x44, 0x00, 0x00, 0x00,
  0x2c, 0xfe, 0xff, 0xff, 0x08, 0x00, 0x00, 0x00, 0x10, 0x00, 0x00, 0x00,
  0x01, 0x00, 0x00, 0x00, 0x00, 0x00, 0x00, 0x00, 0x00, 0x00, 0x00, 0x00,
  0x01, 0x00, 0x00, 0x00, 0xd2, 0xd7, 0x90, 0x3b, 0x19, 0x00, 0x00, 0x00,
  0x73, 0x65, 0x71, 0x75, 0x65, 0x6e, 0x74, 0x69, 0x61, 0x6c, 0x2f, 0x64,
  0x65, 0x6e, 0x73, 0x65, 0x5f, 0x33, 0x2f, 0x4d, 0x61, 0x74, 0x4d, 0x75,
  0x6c, 0x00, 0x00, 0x00, 0x02, 0x00, 0x00, 0x00, 0x0a, 0x00, 0x00, 0x00,
  0x14, 0x00, 0x00, 0x00, 0xaa, 0xfe, 0xff, 0xff, 0x00, 0x00, 0x00, 0x01,
  0x14, 0x00, 0x00, 0x00, 0x34, 0x00, 0x00, 0x00, 0x04, 0x00, 0x00, 0x00,
  0x00, 0x00, 0x00, 0x02, 0x58, 0x00, 0x00, 0x00, 0x94, 0xfe, 0xff, 0xff,
  0x08, 0x00, 0x00, 0x00, 0x14, 0x00, 0x00, 0x00, 0x01, 0x00, 0x00, 0x00,
  0x00, 0x00, 0x00, 0x00, 0x00, 0x00, 0x00, 0x00, 0x00, 0x00, 0x00, 0x00,
  0x01, 0x00, 0x00, 0x00, 0xc9, 0x50, 0x2b, 0x3b, 0x29, 0x00, 0x00, 0x00,
  0x73, 0x65, 0x71, 0x75, 0x65, 0x6e, 0x74, 0x69, 0x61, 0x6c, 0x2f, 0x64,
  0x65, 0x6e, 0x73, 0x65, 0x5f, 0x33, 0x2f, 0x42, 0x69, 0x61, 0x73, 0x41,
  0x64, 0x64, 0x2f, 0x52, 0x65, 0x61, 0x64, 0x56, 0x61, 0x72, 0x69, 0x61,
  0x62, 0x6c, 0x65, 0x4f, 0x70, 0x00, 0x00, 0x00, 0x01, 0x00, 0x00, 0x00,
  0x0a, 0x00, 0x00, 0x00, 0x22, 0xff, 0xff, 0xff, 0x00, 0x00, 0x00, 0x01,
  0x14, 0x00, 0x00, 0x00, 0x30, 0x00, 0x00, 0x00, 0x03, 0x00, 0x00, 0x00,
  0x00, 0x00, 0x00, 0x09, 0x44, 0x00, 0x00, 0x00, 0x0c, 0xff, 0xff, 0xff,
  0x08, 0x00, 0x00, 0x00, 0x10, 0x00, 0x00, 0x00, 0x01, 0x00, 0x00, 0x00,
  0x00, 0x00, 0x00, 0x00, 0x00, 0x00, 0x00, 0x00, 0x01, 0x00, 0x00, 0x00,
  0x22, 0x79, 0xa4, 0x3b, 0x18, 0x00, 0x00, 0x00, 0x73, 0x65, 0x71, 0x75,
  0x65, 0x6e, 0x74, 0x69, 0x61, 0x6c, 0x2f, 0x79, 0x5f, 0x70, 0x72, 0x65,
  0x64, 0x2f, 0x4d, 0x61, 0x74, 0x4d, 0x75, 0x6c, 0x00, 0x00, 0x00, 0x00,
  0x02, 0x00, 0x00, 0x00, 0x04, 0x00, 0x00, 0x00, 0x0a, 0x00, 0x00, 0x00,
  0x8a, 0xff, 0xff, 0xff, 0x00, 0x00, 0x00, 0x01, 0x14, 0x00, 0x00, 0x00,
  0x30, 0x00, 0x00, 0x00, 0x02, 0x00, 0x00, 0x00, 0x00, 0x00, 0x00, 0x02,
  0x54, 0x00, 0x00, 0x00, 0x74, 0xff, 0xff, 0xff, 0x08, 0x00, 0x00, 0x00,
  0x10, 0x00, 0x00, 0x00, 0x01, 0x00, 0x00, 0x00, 0x00, 0x00, 0x00, 0x00,
  0x00, 0x00, 0x00, 0x00, 0x01, 0x00, 0x00, 0x00, 0xae, 0x58, 0x20, 0x3b,
  0x28, 0x00, 0x00, 0x00, 0x73, 0x65, 0x71, 0x75, 0x65, 0x6e, 0x74, 0x69,
  0x61, 0x6c, 0x2f, 0x79, 0x5f, 0x70, 0x72, 0x65, 0x64, 0x2f, 0x42, 0x69,
  0x61, 0x73, 0x41, 0x64, 0x64, 0x2f, 0x52, 0x65, 0x61, 0x64, 0x56, 0x61,
  0x72, 0x69, 0x61, 0x62, 0x6c, 0x65, 0x4f, 0x70, 0x00, 0x00, 0x00, 0x00,
  0x01, 0x00, 0x00, 0x00, 0x04, 0x00, 0x00, 0x00, 0x00, 0x00, 0x16, 0x00,
  0x1c, 0x00, 0x18, 0x00, 0x17, 0x00, 0x10, 0x00, 0x0c, 0x00, 0x08, 0x00,
  0x00, 0x00, 0x00, 0x00, 0x00, 0x00, 0x07, 0x00, 0x16, 0x00, 0x00, 0x00,
  0x00, 0x00, 0x00, 0x01, 0x20, 0x00, 0x00, 0x00, 0x40, 0x00, 0x00, 0x00,
  0x01, 0x00, 0x00, 0x00, 0x00, 0x00, 0x00, 0x09, 0x4c, 0x00, 0x00, 0x00,
  0x0c, 0x00, 0x0c, 0x00, 0x00, 0x00, 0x00, 0x00, 0x08, 0x00, 0x04, 0x00,
  0x0c, 0x00, 0x00, 0x00, 0x08, 0x00, 0x00, 0x00, 0x14, 0x00, 0x00, 0x00,
  0x01, 0x00, 0x00, 0x00, 0x80, 0xff, 0xff, 0xff, 0xff, 0xff, 0xff, 0xff,
  0x00, 0x00, 0x00, 0x00, 0x01, 0x00, 0x00, 0x00, 0x7c, 0x95, 0x51, 0x41,
  0x13, 0x00, 0x00, 0x00, 0x73, 0x65, 0x72, 0x76, 0x69, 0x6e, 0x67, 0x5f,
  0x64, 0x65, 0x66, 0x61, 0x75, 0x6c, 0x74, 0x5f, 0x78, 0x3a, 0x30, 0x00,
  0x02, 0x00, 0x00, 0x00, 0x01, 0x00, 0x00, 0x00, 0x04, 0x00, 0x00, 0x00,
  0x02, 0x00, 0x00, 0x00, 0x24, 0x00, 0x00, 0x00, 0x04, 0x00, 0x00, 0x00,
  0xf0, 0xff, 0xff, 0xff, 0x19, 0x00, 0x00, 0x00, 0x02, 0x00, 0x00, 0x00,
  0x00, 0x00, 0x00, 0x19, 0x0c, 0x00, 0x10, 0x00, 0x0f, 0x00, 0x00, 0x00,
  0x08, 0x00, 0x04, 0x00, 0x0c, 0x00, 0x00, 0x00, 0x09, 0x00, 0x00, 0x00,
  0x04, 0x00, 0x00, 0x00, 0x00, 0x00, 0x00, 0x09
};
unsigned int tflite_learn_5_len = 6728;
#endif // _EI_CLASSIFIER_TFLITE_LEARN_5_H_
